{
  "version": "1.0",
  "truncation": null,
  "padding": {
    "strategy": "BatchLongest",
    "direction": "Right",
    "pad_to_multiple_of": null,
    "pad_id": 0,
    "pad_type_id": 0,
    "pad_token": "[PAD]"
  },
  "added_tokens": [
    {
      "id": 0,
      "content": "[PAD]",
      "single_word": false,
      "lstrip": false,
      "rstrip": false,
      "normalized": false,
      "special": true
    },
    {
      "id": 2,
      "content": "[UNK]",
      "single_word": false,
      "lstrip": false,
      "rstrip": false,
      "normalized": false,
      "special": true
    },
    {
      "id": 3,
      "content": "[CLS]",
      "single_word": false,
      "lstrip": false,
      "rstrip": false,
      "normalized": false,
      "special": true
    },
    {
      "id": 4,
      "content": "[SEP]",
      "single_word": false,
      "lstrip": false,
      "rstrip": false,
      "normalized": false,
      "special": true
    },
    {
      "id": 5,
      "content": "[MASK]",
      "single_word": false,
      "lstrip": false,
      "rstrip": false,
      "normalized": false,
      "special": true
    }
  ],
  "normalizer": {
    "type": "BertNormalizer",
    "clean_text": true,
    "handle_chinese_chars": true,
    "strip_accents": null,
    "lowercase": true
  },
  "pre_tokenizer": {
    "type": "BertPreTokenizer"
  },
  "post_processor": {
    "type": "TemplateProcessing",
    "single": [
      {
        "SpecialToken": {
          "id": "[CLS]",
          "type_id": 0
        }
      },
      {
        "Sequence": {
          "id": "A",
          "type_id": 0
        }
      },
      {
        "SpecialToken": {
          "id": "[SEP]",
          "type_id": 0
        }
      }
    ],
    "pair": [
      {
        "SpecialToken": {
          "id": "[CLS]",
          "type_id": 0
        }
      },
      {
        "Sequence": {
          "id": "A",
          "type_id": 0
        }
      },
      {
        "SpecialToken": {
          "id": "[SEP]",
          "type_id": 0
        }
      },
      {
        "Sequence": {
          "id": "B",
          "type_id": 1
        }
      },
      {
        "SpecialToken": {
          "id": "[SEP]",
          "type_id": 1
        }
      }
    ],
    "special_tokens": {
      "[CLS]": {
        "id": "[CLS]",
        "ids": [
          3
        ],
        "tokens": [
          "[CLS]"
        ]
      },
      "[SEP]": {
        "id": "[SEP]",
        "ids": [
          4
        ],
        "tokens": [
          "[SEP]"
        ]
      }
    }
  },
  "decoder": {
    "type": "WordPiece",
    "prefix": "##",
    "cleanup": true
  },
  "model": {
    "type": "WordPiece",
    "unk_token": "[UNK]",
    "continuing_subword_prefix": "##",
    "max_input_chars_per_word": 100,
    "vocab": {
      "[PAD]": 0,
      "[EOS]": 1,
      "[UNK]": 2,
      "[CLS]": 3,
      "[SEP]": 4,
      "[MASK]": 5,
      "the": 6,
      "of": 7,
      "and": 8,
      "to": 9,
      "in": 10,
      "a": 11,
      "our": 12,
      "we": 13,
      "for": 14,
      "that": 15,
      "or": 16,
      "is": 17,
      "as": 18,
      "on": 19,
      "with": 20,
      "are": 21,
      "##,": 22,
      "from": 23,
      "by": 24,
      "be": 25,
      "this": 26,
      "million": 27,
      "at": 28,
      "have": 29,
      "not": 30,
      "which": 31,
      "may": 32,
      "an": 33,
      "other": 34,
      "was": 35,
      "will": 36,
      "company": 37,
      "its": 38,
      "financial": 39,
      "you": 40,
      "it": 41,
      "any": 42,
      "these": 43,
      "i": 44,
      "sales": 45,
      "net": 46,
      "quarter": 47,
      ".": 48,
      "has": 49,
      "cash": 50,
      "operating": 51,
      "market": 52,
      "could": 53,
      "business": 54,
      "income": 55,
      "new": 56,
      "were": 57,
      "s": 58,
      "more": 59,
      "if": 60,
      "increase": 61,
      "year": 62,
      "##s": 63,
      "growth": 64,
      "capital": 65,
      "ended": 66,
      "also": 67,
      "interest": 68,
      "all": 69,
      "revenue": 70,
      "but": 71,
      "such": 72,
      "due": 73,
      "than": 74,
      "increased": 75,
      "over": 76,
      "31,": 77,
      "first": 78,
      "investment": 79,
      "â": 80,
      "months": 81,
      "under": 82,
      "results": 83,
      "during": 84,
      "-": 85,
      "securities": 86,
      "total": 87,
      "compared": 88,
      "products": 89,
      "us": 90,
      "would": 91,
      "research": 92,
      "stock": 93,
      "about": 94,
      "been": 95,
      "so": 96,
      "credit": 97,
      "related": 98,
      "services": 99,
      "including": 100,
      "price": 101,
      "rate": 102,
      "tax": 103,
      "their": 104,
      "some": 105,
      "primarily": 106,
      "30,": 107,
      "product": 108,
      "december": 109,
      "can": 110,
      "costs": 111,
      "there": 112,
      "management": 113,
      "based": 114,
      "through": 115,
      "certain": 116,
      "approximately": 117,
      "value": 118,
      "into": 119,
      "operations": 120,
      "cost": 121,
      "##'s": 122,
      "do": 123,
      "##)": 124,
      "report": 125,
      "per": 126,
      "believe": 127,
      "future": 128,
      "up": 129,
      "fiscal": 130,
      "three": 131,
      "higher": 132,
      "##;": 133,
      "additional": 134,
      "think": 135,
      "result": 136,
      "one": 137,
      "million,": 138,
      "information": 139,
      "current": 140,
      "no": 141,
      "assets": 142,
      "significant": 143,
      "should": 144,
      "revenues": 145,
      "well": 146,
      "share": 147,
      "impact": 148,
      "earnings": 149,
      "continue": 150,
      "those": 151,
      "&": 152,
      "see": 153,
      "subject": 154,
      "period": 155,
      "##.": 156,
      "lower": 157,
      "expect": 158,
      "had": 159,
      "just": 160,
      "expenses": 161,
      "expected": 162,
      "what": 163,
      "expense": 164,
      "next": 165,
      "changes": 166,
      "third": 167,
      "last": 168,
      "time": 169,
      "equity": 170,
      "average": 171,
      "june": 172,
      "##â": 173,
      "they": 174,
      "customers": 175,
      "debt": 176,
      "risk": 177,
      "u.s.": 178,
      "september": 179,
      "second": 180,
      "when": 181,
      "development": 182,
      "prior": 183,
      "margin": 184,
      "your": 185,
      "company's": 186,
      "markets": 187,
      "loss": 188,
      "loan": 189,
      "very": 190,
      "common": 191,
      "number": 192,
      "companies": 193,
      "use": 194,
      "while": 195,
      "ability": 196,
      "march": 197,
      "gross": 198,
      "statements": 199,
      "morgan": 200,
      "going": 201,
      "each": 202,
      "shares": 203,
      "same": 204,
      "service": 205,
      "consolidated": 206,
      "performance": 207,
      "within": 208,
      "both": 209,
      "change": 210,
      "material": 211,
      "now": 212,
      "available": 213,
      "where": 214,
      "used": 215,
      "provide": 216,
      "offset": 217,
      "decrease": 218,
      "include": 219,
      "only": 220,
      "loans": 221,
      "##:": 222,
      "##ing": 223,
      "amount": 224,
      "addition,": 225,
      "line": 226,
      "billion": 227,
      "industry": 228,
      "end": 229,
      "bank": 230,
      "part": 231,
      "following": 232,
      "customer": 233,
      "accounting": 234,
      "make": 235,
      "general": 236,
      "potential": 237,
      "because": 238,
      "two": 239,
      "rates": 240,
      "table": 241,
      "most": 242,
      "data": 243,
      "basis": 244,
      "united": 245,
      "##e": 246,
      "segment": 247,
      "terms": 248,
      "eps": 249,
      "upon": 250,
      "##d": 251,
      "estimate": 252,
      "strong": 253,
      "##%": 254,
      "acquisition": 255,
      "commercial": 256,
      "regulatory": 257,
      "exchange": 258,
      "compensation": 259,
      "affect": 260,
      "insurance": 261,
      "does": 262,
      "out": 263,
      "good": 264,
      "associated": 265,
      "like": 266,
      "six": 267,
      "##ed": 268,
      "down": 269,
      "fair": 270,
      "then": 271,
      "estimates": 272,
      "international": 273,
      "losses": 274,
      "investments": 275,
      "effect": 276,
      "included": 277,
      "required": 278,
      "limited": 279,
      "decreased": 280,
      "activities": 281,
      "sale": 282,
      "how": 283,
      "nine": 284,
      "years": 285,
      "production": 286,
      "foreign": 287,
      "risks": 288,
      "economic": 289,
      "flow": 290,
      "existing": 291,
      "however,": 292,
      "after": 293,
      "currently": 294,
      "made": 295,
      "return": 296,
      "gas": 297,
      "factors": 298,
      "we're": 299,
      "annual": 300,
      "provided": 301,
      "demand": 302,
      "balance": 303,
      "being": 304,
      "banking": 305,
      "distribution": 306,
      "high": 307,
      "target": 308,
      "##..": 309,
      "--": 310,
      "investors": 311,
      "marketing": 312,
      "stanley": 313,
      "less": 314,
      "12": 315,
      "generally": 316,
      "further": 317,
      "portfolio": 318,
      "past": 319,
      "agreement": 320,
      "many": 321,
      "purchase": 322,
      "rating": 323,
      "key": 324,
      "given": 325,
      "fourth": 326,
      "issued": 327,
      "asset": 328,
      "sell": 329,
      "reported": 330,
      "weâ": 331,
      "thank": 332,
      "(": 333,
      "prices": 334,
      "between": 335,
      "it's": 336,
      "global": 337,
      "federal": 338,
      "notes": 339,
      "able": 340,
      "technology": 341,
      "continued": 342,
      "effective": 343,
      "question": 344,
      "facility": 345,
      "property": 346,
      "call": 347,
      "quarter,": 348,
      "business,": 349,
      "note": 350,
      "level": 351,
      "adversely": 352,
      "guidance": 353,
      "outstanding": 354,
      "long-term": 355,
      "group": 356,
      "states": 357,
      "profit": 358,
      "inc.": 359,
      "percentage": 360,
      "various": 361,
      "take": 362,
      "##a": 363,
      "decline": 364,
      "##),": 365,
      "item": 366,
      "overall": 367,
      "look": 368,
      "increases": 369,
      "benefit": 370,
      "corporate": 371,
      "margins": 372,
      "real": 373,
      "form": 374,
      "systems": 375,
      "consumer": 376,
      "includes": 377,
      "term": 378,
      "before": 379,
      "still": 380,
      "below": 381,
      "pricing": 382,
      "##s,": 383,
      "analysis": 384,
      "back": 385,
      "adverse": 386,
      "##y": 387,
      "retail": 388,
      "partially": 389,
      "volume": 390,
      "get": 391,
      "really": 392,
      "support": 393,
      "since": 394,
      "clinical": 395,
      "valuation": 396,
      "adjusted": 397,
      "plan": 398,
      "recent": 399,
      "year,": 400,
      "without": 401,
      "estimated": 402,
      "important": 403,
      "senior": 404,
      "maintain": 405,
      "much": 406,
      "condition": 407,
      "little": 408,
      "requirements": 409,
      "coverage": 410,
      "financing": 411,
      "who": 412,
      "range": 413,
      "principal": 414,
      "specific": 415,
      "state": 416,
      "acquired": 417,
      "manufacturing": 418,
      "likely": 419,
      "full": 420,
      "act": 421,
      "date": 422,
      "recorded": 423,
      "large": 424,
      "payments": 425,
      "regarding": 426,
      "received": 427,
      "1": 428,
      "trading": 429,
      "several": 430,
      "and/or": 431,
      "driven": 432,
      "better": 433,
      "inventory": 434,
      "competitive": 435,
      "january": 436,
      "##r": 437,
      "forward-looking": 438,
      "public": 439,
      "order": 440,
      "liabilities": 441,
      "equipment": 442,
      "discussion": 443,
      "versus": 444,
      "##n": 445,
      "offer": 446,
      "2012": 447,
      "please": 448,
      "sold": 449,
      "levels": 450,
      "currency": 451,
      "2011": 452,
      "2010": 453,
      "periods": 454,
      "portion": 455,
      "##x": 456,
      "north": 457,
      "relative": 458,
      "above": 459,
      "ratio": 460,
      "half": 461,
      "·": 462,
      "##t": 463,
      "working": 464,
      "require": 465,
      "liquidity": 466,
      "conditions": 467,
      "contract": 468,
      "oil": 469,
      "percent": 470,
      "program": 471,
      "##\"": 472,
      "even": 473,
      "2009": 474,
      "payment": 475,
      "amounts": 476,
      "energy": 477,
      "go": 478,
      "liability": 479,
      "mortgage": 480,
      "power": 481,
      "re": 482,
      "positive": 483,
      "natural": 484,
      "reflect": 485,
      "deferred": 486,
      "##0": 487,
      "although": 488,
      "that's": 489,
      "significantly": 490,
      "accounts": 491,
      "fees": 492,
      "board": 493,
      "companyâ": 494,
      "kind": 495,
      "reduce": 496,
      "position": 497,
      "ratings": 498,
      "actual": 499,
      "buy": 500,
      "security": 501,
      "impairment": 502,
      "against": 503,
      "using": 504,
      "##m": 505,
      "right": 506,
      "reduction": 507,
      "analyst": 508,
      "2015": 509,
      "did": 510,
      "provides": 511,
      "2013": 512,
      "2": 513,
      "system": 514,
      "ebitda": 515,
      "health": 516,
      "pay": 517,
      "administrative": 518,
      "2008": 519,
      "resulting": 520,
      "2014": 521,
      "respect": 522,
      "taxes": 523,
      "contracts": 524,
      "paid": 525,
      "different": 526,
      "control": 527,
      "2016": 528,
      "process": 529,
      "mentioned": 530,
      "meet": 531,
      "software": 532,
      "multiple": 533,
      "regulations": 534,
      "facilities": 535,
      "low": 536,
      "similar": 537,
      "acquisitions": 538,
      "major": 539,
      "quality": 540,
      "we've": 541,
      "government": 542,
      "funds": 543,
      "products,": 544,
      "among": 545,
      "benefits": 546,
      "3": 547,
      "agreements": 548,
      "private": 549,
      "flows": 550,
      "obligations": 551,
      "1,": 552,
      "company,": 553,
      "discussed": 554,
      "laws": 555,
      "local": 556,
      "quarterly": 557,
      "estate": 558,
      "core": 559,
      "supply": 560,
      "them": 561,
      "materially": 562,
      "base": 563,
      "greater": 564,
      "businesses": 565,
      "remain": 566,
      "own": 567,
      "point": 568,
      "2007": 569,
      "capacity": 570,
      "making": 571,
      "claims": 572,
      "need": 573,
      "bit": 574,
      "reduced": 575,
      "around": 576,
      "executive": 577,
      "focus": 578,
      "amortization": 579,
      "transactions": 580,
      "2017": 581,
      "trade": 582,
      "clients": 583,
      "##1": 584,
      ",": 585,
      "historical": 586,
      "fixed": 587,
      "chief": 588,
      "receive": 589,
      "reporting": 590,
      "negative": 591,
      "applicable": 592,
      "july": 593,
      "recognized": 594,
      "points": 595,
      "gains": 596,
      "##c": 597,
      "experience": 598,
      "t": 599,
      "whether": 600,
      "looking": 601,
      "##2": 602,
      "access": 603,
      "##l": 604,
      "lot": 605,
      "page": 606,
      "views": 607,
      "gain": 608,
      "transaction": 609,
      "across": 610,
      "corporation": 611,
      "2006": 612,
      "covered": 613,
      "direct": 614,
      "fund": 615,
      "securities,": 616,
      "2005": 617,
      "primary": 618,
      "cause": 619,
      "opportunities": 620,
      "inc.,": 621,
      "rights": 622,
      "plans": 623,
      "october": 624,
      "attributable": 625,
      "improvement": 626,
      "improved": 627,
      "operations,": 628,
      "so,": 629,
      "assumptions": 630,
      "charges": 631,
      "substantial": 632,
      "regulated": 633,
      "early": 634,
      "work": 635,
      "april": 636,
      "long": 637,
      "must": 638,
      "unit": 639,
      "proceeds": 640,
      "##3": 641,
      "store": 642,
      "particular": 643,
      "employees": 644,
      "continues": 645,
      "addition": 646,
      "connection": 647,
      "approval": 648,
      "continuing": 649,
      "home": 650,
      "##5": 651,
      "itâ": 652,
      "result,": 653,
      "selling": 654,
      "excluding": 655,
      "care": 656,
      "my": 657,
      "lease": 658,
      "strategy": 659,
      "generated": 660,
      "strategic": 661,
      "##,000": 662,
      "forward": 663,
      "favorable": 664,
      "that,": 665,
      "mix": 666,
      "obtain": 667,
      "relating": 668,
      "expenditures": 669,
      "and,": 670,
      "comparable": 671,
      "construction": 672,
      "activity": 673,
      "model": 674,
      "sheet": 675,
      "costs,": 676,
      "restructuring": 677,
      "resources": 678,
      "timing": 679,
      "announced": 680,
      "properties": 681,
      "held": 682,
      "2004": 683,
      "review": 684,
      "10": 685,
      "network": 686,
      "##er": 687,
      "##o": 688,
      "drug": 689,
      "increasing": 690,
      "described": 691,
      "compliance": 692,
      "policies": 693,
      "completed": 694,
      "know": 695,
      "single": 696,
      "license": 697,
      "contents": 698,
      "dividend": 699,
      "contained": 700,
      "give": 701,
      "##9": 702,
      "2012,": 703,
      "statement": 704,
      "respectively,": 705,
      "wells": 706,
      "reports": 707,
      "life": 708,
      "account": 709,
      "member": 710,
      "##8": 711,
      "##4": 712,
      "internal": 713,
      "2003": 714,
      "premium": 715,
      "previously": 716,
      "affected": 717,
      "events": 718,
      "least": 719,
      "defined": 720,
      "consider": 721,
      "solutions": 722,
      "america": 723,
      "##ly": 724,
      "charge": 725,
      "patients": 726,
      "##6": 727,
      "outside": 728,
      "individual": 729,
      "either": 730,
      "legal": 731,
      "national": 732,
      "llc": 733,
      "plus": 734,
      "free": 735,
      "grow": 736,
      "until": 737,
      "2015,": 738,
      "%": 739,
      "provision": 740,
      "spending": 741,
      "view": 742,
      "2011,": 743,
      "february": 744,
      "beginning": 745,
      "expectations": 746,
      "section": 747,
      "conference": 748,
      "stores": 749,
      "cannot": 750,
      "dividends": 751,
      "2013,": 752,
      "turn": 753,
      "sales,": 754,
      "2014,": 755,
      "excess": 756,
      "improve": 757,
      "10%": 758,
      "2016,": 759,
      "particularly": 760,
      "remaining": 761,
      "2009,": 762,
      "leverage": 763,
      "items": 764,
      ")": 765,
      "approved": 766,
      "##7": 767,
      "diluted": 768,
      "president": 769,
      "disclosure": 770,
      "repurchase": 771,
      "services,": 772,
      "incurred": 773,
      "2010,": 774,
      "expansion": 775,
      "competition": 776,
      "subsidiaries": 777,
      "allowance": 778,
      "medical": 779,
      "time,": 780,
      "case": 781,
      "relevant": 782,
      "trends": 783,
      "programs": 784,
      "depreciation": 785,
      "instruments": 786,
      "want": 787,
      "way": 788,
      "short-term": 789,
      "say": 790,
      "standard": 791,
      "comes": 792,
      "reserve": 793,
      "resulted": 794,
      "set": 795,
      "another": 796,
      "directly": 797,
      "otherwise": 798,
      "independent": 799,
      "disclosures": 800,
      "expects": 801,
      "project": 802,
      "firm": 803,
      "month": 804,
      "##'": 805,
      "few": 806,
      "preferred": 807,
      "impacted": 808,
      "might": 809,
      "thatâ": 810,
      "develop": 811,
      "accordance": 812,
      "expressed": 813,
      "sources": 814,
      "best": 815,
      "basis,": 816,
      "coming": 817,
      "investor": 818,
      "2008,": 819,
      "slightly": 820,
      "extent": 821,
      "opportunity": 822,
      "##i": 823,
      "represents": 824,
      "come": 825,
      "become": 826,
      "patent": 827,
      "actually": 828,
      "ve": 829,
      "##on": 830,
      "got": 831,
      "volumes": 832,
      "no.": 833,
      "j.p.": 834,
      "2017,": 835,
      "largest": 836,
      "2018": 837,
      "ongoing": 838,
      "efforts": 839,
      "domestic": 840,
      "(the": 841,
      "anticipated": 842,
      "party": 843,
      "joint": 844,
      "five": 845,
      "maybe": 846,
      "##g": 847,
      "fda": 848,
      "difficult": 849,
      "environmental": 850,
      "borrowings": 851,
      "believes": 852,
      "fully": 853,
      "four": 854,
      "goodwill": 855,
      "small": 856,
      "analysts": 857,
      "november": 858,
      "offering": 859,
      "remains": 860,
      "personal": 861,
      "phase": 862,
      "days": 863,
      "units": 864,
      "third-party": 865,
      "entered": 866,
      "2000": 867,
      "client": 868,
      "2002": 869,
      "additionally,": 870,
      "hold": 871,
      "markets,": 872,
      "provisions": 873,
      "seeing": 874,
      "distributed": 875,
      "professional": 876,
      "to,": 877,
      "unable": 878,
      "consistent": 879,
      "failure": 880,
      "august": 881,
      "brand": 882,
      "industrial": 883,
      "typically": 884,
      "needs": 885,
      "proprietary": 886,
      "don't": 887,
      "combined": 888,
      "substantially": 889,
      "owned": 890,
      "finance": 891,
      "europe": 892,
      "advertising": 893,
      "##p": 894,
      "perform": 895,
      "generate": 896,
      "profitability": 897,
      "5": 898,
      "critical": 899,
      "2007,": 900,
      "differ": 901,
      "funding": 902,
      "initial": 903,
      "help": 904,
      "competitors": 905,
      "written": 906,
      "world": 907,
      "lines": 908,
      "top": 909,
      "reflects": 910,
      "fee": 911,
      "reserves": 912,
      "affiliates": 913,
      "me": 914,
      "revolving": 915,
      "analyst's": 916,
      "declined": 917,
      "providing": 918,
      "##’s": 919,
      "class": 920,
      "seen": 921,
      "employee": 922,
      "projects": 923,
      "stocks": 924,
      "litigation": 925,
      "requires": 926,
      "factors,": 927,
      "intended": 928,
      "growing": 929,
      "american": 930,
      "forecast": 931,
      "sufficient": 932,
      "measures": 933,
      "assets,": 934,
      "herein": 935,
      "yield": 936,
      "policy": 937,
      "technologies": 938,
      "majority": 939,
      "2006,": 940,
      "event": 941,
      "experienced": 942,
      "already": 943,
      "aggregate": 944,
      "directors": 945,
      "lead": 946,
      "years,": 947,
      "investing": 948,
      "previous": 949,
      "holding": 950,
      "off": 951,
      "office": 952,
      "relatively": 953,
      "outlook": 954,
      "discount": 955,
      "record": 956,
      "located": 957,
      "maintenance": 958,
      "focused": 959,
      "said": 960,
      "options": 961,
      "drive": 962,
      "prepared": 963,
      "determined": 964,
      "things": 965,
      "exposure": 966,
      "open": 967,
      "manage": 968,
      "european": 969,
      "intellectual": 970,
      "option": 971,
      "environment": 972,
      "4": 973,
      "##b": 974,
      "expand": 975,
      "deposits": 976,
      "success": 977,
      "##es": 978,
      "##al": 979,
      "possible": 980,
      "complete": 981,
      "achieve": 982,
      "quarters": 983,
      "areas": 984,
      "recently": 985,
      "update": 986,
      "(1)": 987,
      "orders": 988,
      "treatment": 989,
      "recommendations": 990,
      "probably": 991,
      "highly": 992,
      "issue": 993,
      "##k": 994,
      "materials": 995,
      "standards": 996,
      "despite": 997,
      "fuel": 998,
      "longer": 999,
      "30": 1000,
      "leading": 1001,
      "flat": 1002,
      "parties": 1003,
      "filed": 1004,
      "throughout": 1005,
      "2005,": 1006,
      "vice": 1007,
      "seek": 1008,
      "operational": 1009,
      "pension": 1010,
      "20": 1011,
      "non-gaap": 1012,
      "[data\\utable\\uremoved]": 1013,
      "move": 1014,
      "incremental": 1015,
      "start": 1016,
      "savings": 1017,
      "healthcare": 1018,
      "having": 1019,
      "co.": 1020,
      "unless": 1021,
      "negatively": 1022,
      "growth,": 1023,
      "intangible": 1024,
      "commission": 1025,
      "applications": 1026,
      "contractual": 1027,
      "combination": 1028,
      "purchased": 1029,
      "market,": 1030,
      "2001": 1031,
      "rbc": 1032,
      "volatility": 1033,
      "except": 1034,
      "actions": 1035,
      "components": 1036,
      "day": 1037,
      "circumstances": 1038,
      "pursuant": 1039,
      "iâ": 1040,
      "represent": 1041,
      "considered": 1042,
      "people": 1043,
      "broad": 1044,
      "issues": 1045,
      "gaap": 1046,
      "established": 1047,
      "anticipate": 1048,
      "doing": 1049,
      "underlying": 1050,
      "dollar": 1051,
      "place": 1052,
      "registered": 1053,
      "totaled": 1054,
      "deposit": 1055,
      "secured": 1056,
      "ownership": 1057,
      "sector": 1058,
      "availability": 1059,
      "taking": 1060,
      "sort": 1061,
      "pretty": 1062,
      "solid": 1063,
      "protection": 1064,
      "couple": 1065,
      "carrying": 1066,
      "put": 1067,
      "residential": 1068,
      "deutsche": 1069,
      "subsidiary": 1070,
      "##ng": 1071,
      "short": 1072,
      "recovery": 1073,
      "decision": 1074,
      "delivery": 1075,
      "digital": 1076,
      "2004,": 1077,
      "##h": 1078,
      "operate": 1079,
      "great": 1080,
      "100": 1081,
      "close": 1082,
      "determine": 1083,
      "factor": 1084,
      "expenses,": 1085,
      "application": 1086,
      "enterprise": 1087,
      "adjustments": 1088,
      "payable": 1089,
      "example,": 1090,
      "necessary": 1091,
      "incur": 1092,
      "final": 1093,
      "here": 1094,
      "john": 1095,
      "presented": 1096,
      "returns": 1097,
      "successful": 1098,
      "15": 1099,
      "20%": 1100,
      "times": 1101,
      "managed": 1102,
      "strength": 1103,
      "50": 1104,
      "safety": 1105,
      "effects": 1106,
      "s&p": 1107,
      "area": 1108,
      "talk": 1109,
      "sg&a": 1110,
      "us,": 1111,
      "team": 1112,
      "well,": 1113,
      "consensus": 1114,
      "8": 1115,
      "rates,": 1116,
      "again": 1117,
      "report,": 1118,
      "grew": 1119,
      "fargo": 1120,
      "reflected": 1121,
      "add": 1122,
      "partners": 1123,
      "year-over-year": 1124,
      "suisse": 1125,
      "customers,": 1126,
      "organic": 1127,
      "book": 1128,
      "relationships": 1129,
      "roughly": 1130,
      "indicated": 1131,
      "building": 1132,
      "hong": 1133,
      "personnel": 1134,
      "largely": 1135,
      "big": 1136,
      "appropriate": 1137,
      "assurance": 1138,
      "income,": 1139,
      "course": 1140,
      "pressure": 1141,
      "you're": 1142,
      "issuance": 1143,
      "2003,": 1144,
      "accounted": 1145,
      "6": 1146,
      "5%": 1147,
      "refer": 1148,
      "trial": 1149,
      "mr.": 1150,
      "responsible": 1151,
      "minimum": 1152,
      "purposes": 1153,
      "limit": 1154,
      "release": 1155,
      "persons": 1156,
      "variety": 1157,
      "canada": 1158,
      "wireless": 1159,
      "reflecting": 1160,
      "2018,": 1161,
      "generation": 1162,
      "today": 1163,
      "settlement": 1164,
      "i'm": 1165,
      "yes,": 1166,
      "larger": 1167,
      "trust": 1168,
      "infrastructure": 1169,
      "beyond": 1170,
      "(â": 1171,
      "realized": 1172,
      "initiatives": 1173,
      "electric": 1174,
      "1%": 1175,
      "successfully": 1176,
      "design": 1177,
      "internet": 1178,
      "receivable": 1179,
      "opinions": 1180,
      "7": 1181,
      "vs.": 1182,
      "segments": 1183,
      "(2)": 1184,
      "measure": 1185,
      "pipeline": 1186,
      "derivative": 1187,
      "drilling": 1188,
      "content": 1189,
      "communications": 1190,
      "upside": 1191,
      "revenues,": 1192,
      "near": 1193,
      "regulation": 1194,
      "source:": 1195,
      "fluctuations": 1196,
      "billion,": 1197,
      "am": 1198,
      "comply": 1199,
      "designed": 1200,
      "specialty": 1201,
      "law": 1202,
      "officer": 1203,
      "progress": 1204,
      "is,": 1205,
      "conduct": 1206,
      "2002,": 1207,
      "water": 1208,
      "revenue,": 1209,
      "developed": 1210,
      "acquire": 1211,
      "(including": 1212,
      "processing": 1213,
      "every": 1214,
      "ll": 1215,
      "taken": 1216,
      "plant": 1217,
      "commitments": 1218,
      "mobile": 1219,
      "david": 1220,
      "makes": 1221,
      "type": 1222,
      "allow": 1223,
      "arrangements": 1224,
      "along": 1225,
      "months,": 1226,
      "saw": 1227,
      "countries": 1228,
      "address": 1229,
      "compete": 1230,
      "closing": 1231,
      "positions": 1232,
      "trend": 1233,
      "component": 1234,
      "purchases": 1235,
      "10-k": 1236,
      "thanks": 1237,
      "we'll": 1238,
      "division": 1239,
      "media": 1240,
      "platform": 1241,
      "test": 1242,
      "raw": 1243,
      "integration": 1244,
      "asia": 1245,
      "japan": 1246,
      "money": 1247,
      "shareholders": 1248,
      "attractive": 1249,
      "rules": 1250,
      "authority": 1251,
      "/": 1252,
      "added": 1253,
      "â·": 1254,
      "companies,": 1255,
      "forth": 1256,
      "(or": 1257,
      "source": 1258,
      "far": 1259,
      "patents": 1260,
      "uncertainties": 1261,
      "depend": 1262,
      "projected": 1263,
      "500": 1264,
      "sfas": 1265,
      "deliver": 1266,
      "15%": 1267,
      "obviously": 1268,
      "improving": 1269,
      "south": 1270,
      "commodity": 1271,
      "operator": 1272,
      "moving": 1273,
      "leases": 1274,
      "improvements": 1275,
      "m": 1276,
      "present": 1277,
      "obligation": 1278,
      "values": 1279,
      "online": 1280,
      "build": 1281,
      "let": 1282,
      "website": 1283,
      "types": 1284,
      "outperform": 1285,
      "food": 1286,
      "share,": 1287,
      "1999": 1288,
      "something": 1289,
      "reasonable": 1290,
      "earlier": 1291,
      "management's": 1292,
      "adoption": 1293,
      "interests": 1294,
      "invest": 1295,
      "evaluate": 1296,
      "##000": 1297,
      "dependent": 1298,
      "rated": 1299,
      "card": 1300,
      "deal": 1301,
      "special": 1302,
      "accrued": 1303,
      "obtained": 1304,
      "canadian": 1305,
      "worldwide": 1306,
      "institutional": 1307,
      "china": 1308,
      "trials": 1309,
      "represented": 1310,
      "wholesale": 1311,
      "convertible": 1312,
      "rental": 1313,
      "contributed": 1314,
      "storage": 1315,
      "management,": 1316,
      "mean": 1317,
      "premiums": 1318,
      "you,": 1319,
      "certainly": 1320,
      "loans,": 1321,
      "candidates": 1322,
      "principally": 1323,
      "michael": 1324,
      "ahead": 1325,
      "venture": 1326,
      "land": 1327,
      "getting": 1328,
      "action": 1329,
      "results,": 1330,
      "11": 1331,
      "fact": 1332,
      "variable": 1333,
      "normal": 1334,
      "merger": 1335,
      "structure": 1336,
      "developing": 1337,
      "size": 1338,
      "effectively": 1339,
      "labor": 1340,
      "conditions,": 1341,
      "side": 1342,
      "##-based": 1343,
      "balances": 1344,
      "adequate": 1345,
      "50%": 1346,
      "center": 1347,
      "launch": 1348,
      "restricted": 1349,
      "potentially": 1350,
      "youâ": 1351,
      "banks": 1352,
      "systems,": 1353,
      "active": 1354,
      "contact": 1355,
      "earned": 1356,
      "restrictions": 1357,
      "recognition": 1358,
      "mark": 1359,
      "manufacturers": 1360,
      "derived": 1361,
      "nature": 1362,
      "agreement,": 1363,
      "equal": 1364,
      "feel": 1365,
      "retain": 1366,
      "maintaining": 1367,
      "study": 1368,
      "integrated": 1369,
      "there's": 1370,
      "series": 1371,
      "regional": 1372,
      "his": 1373,
      "donâ": 1374,
      "information,": 1375,
      "accordingly,": 1376,
      "cover": 1377,
      "discontinued": 1378,
      "alternative": 1379,
      "category": 1380,
      "cs": 1381,
      "enter": 1382,
      "technical": 1383,
      "once": 1384,
      "period,": 1385,
      "expense,": 1386,
      "transportation": 1387,
      "completion": 1388,
      "entities": 1389,
      "declines": 1390,
      "authorized": 1391,
      "original": 1392,
      "uses": 1393,
      "method": 1394,
      "reductions": 1395,
      "done": 1396,
      "3%": 1397,
      "face": 1398,
      "sec": 1399,
      "adjustment": 1400,
      "company’s": 1401,
      "of,": 1402,
      "matters": 1403,
      "agency": 1404,
      "therefore,": 1405,
      "patient": 1406,
      "(in": 1407,
      "(ii)": 1408,
      "aware": 1409,
      "25": 1410,
      "r&d": 1411,
      "13": 1412,
      "operation": 1413,
      "jefferies": 1414,
      "run": 1415,
      "department": 1416,
      "nor": 1417,
      "he": 1418,
      "##in": 1419,
      "pharmaceutical": 1420,
      "members": 1421,
      "##-": 1422,
      "##f": 1423,
      "incorporated": 1424,
      "comprehensive": 1425,
      "kong": 1426,
      "relationship": 1427,
      "channel": 1428,
      "brands": 1429,
      "timely": 1430,
      "9": 1431,
      "stockholders": 1432,
      "always": 1433,
      "(i)": 1434,
      "begin": 1435,
      "respective": 1436,
      "yet": 1437,
      "managementâ": 1438,
      "late": 1439,
      "traditional": 1440,
      "exceed": 1441,
      "q1": 1442,
      "quite": 1443,
      "18": 1444,
      "especially": 1445,
      "stock,": 1446,
      "maturity": 1447,
      "providers": 1448,
      "talked": 1449,
      "entity": 1450,
      "person": 1451,
      "shift": 1452,
      "square": 1453,
      "stated": 1454,
      "advantage": 1455,
      "2%": 1456,
      "q4": 1457,
      "profits": 1458,
      "research,": 1459,
      "backlog": 1460,
      "underperform": 1461,
      "invested": 1462,
      "suppliers": 1463,
      "name": 1464,
      "guarantee": 1465,
      "pretax": 1466,
      "subsequent": 1467,
      "40": 1468,
      "medicare": 1469,
      "testing": 1470,
      "4%": 1471,
      "assessment": 1472,
      "selling,": 1473,
      "accurately": 1474,
      "depending": 1475,
      "assume": 1476,
      "though": 1477,
      "12-month": 1478,
      "harm": 1479,
      "lending": 1480,
      "15,": 1481,
      "create": 1482,
      "guess": 1483,
      "underwriting": 1484,
      "fail": 1485,
      "came": 1486,
      "amended": 1487,
      "protect": 1488,
      "recognize": 1489,
      "2001,": 1490,
      "ensure": 1491,
      "collateral": 1492,
      "contain": 1493,
      "##ion": 1494,
      "now,": 1495,
      "provider": 1496,
      "electronic": 1497,
      "things,": 1498,
      "equivalents": 1499,
      "contribution": 1500,
      "utility": 1501,
      "reducing": 1502,
      "advanced": 1503,
      "often": 1504,
      "proposed": 1505,
      "o": 1506,
      "occur": 1507,
      "agencies": 1508,
      "emerging": 1509,
      "reimbursement": 1510,
      "##%,": 1511,
      "response": 1512,
      "strategies": 1513,
      "d": 1514,
      "numbers": 1515,
      "licensed": 1516,
      "group,": 1517,
      "geographic": 1518,
      "states,": 1519,
      "space": 1520,
      "q2": 1521,
      "managing": 1522,
      "representing": 1523,
      "solicitation": 1524,
      "slide": 1525,
      "involve": 1526,
      "neutral": 1527,
      "again,": 1528,
      "known": 1529,
      "##ve": 1530,
      "comments": 1531,
      "approach": 1532,
      "published": 1533,
      "consists": 1534,
      "air": 1535,
      "sure": 1536,
      "default": 1537,
      "taxable": 1538,
      "okay,": 1539,
      "site": 1540,
      "intend": 1541,
      "court": 1542,
      "means": 1543,
      "mainly": 1544,
      "1998": 1545,
      "questions": 1546,
      "pro": 1547,
      "covenants": 1548,
      "reinsurance": 1549,
      "street": 1550,
      "borrowing": 1551,
      "prevent": 1552,
      "receivables": 1553,
      "unfavorable": 1554,
      "(see": 1555,
      "conversion": 1556,
      "stock-based": 1557,
      "weighted": 1558,
      "non-cash": 1559,
      "advisory": 1560,
      "why": 1561,
      "parts": 1562,
      "appears": 1563,
      "transition": 1564,
      "q3": 1565,
      "noted": 1566,
      "delay": 1567,
      "delays": 1568,
      "produce": 1569,
      "conflict": 1570,
      "condensed": 1571,
      "##us": 1572,
      "planned": 1573,
      "goods": 1574,
      "incentive": 1575,
      "responsibility": 1576,
      "6%": 1577,
      "keep": 1578,
      "together": 1579,
      "identified": 1580,
      "singapore": 1581,
      "##\")": 1582,
      "calculated": 1583,
      "macquarie": 1584,
      "##an": 1585,
      "york": 1586,
      "##able": 1587,
      "country": 1588,
      "rely": 1589,
      "cable": 1590,
      "(as": 1591,
      "later": 1592,
      "termination": 1593,
      "60": 1594,
      "##”": 1595,
      "preparation": 1596,
      "licensing": 1597,
      "judgment": 1598,
      "rather": 1599,
      "devices": 1600,
      "development,": 1601,
      "acquisitions,": 1602,
      "vary": 1603,
      "historically": 1604,
      "requirements,": 1605,
      "read": 1606,
      "pre-tax": 1607,
      "25%": 1608,
      "implementation": 1609,
      "comprised": 1610,
      "decreases": 1611,
      "weather": 1612,
      "consumers": 1613,
      "found": 1614,
      "involved": 1615,
      "institutions": 1616,
      "limited,": 1617,
      "exercise": 1618,
      "whole": 1619,
      "8%": 1620,
      "consideration": 1621,
      "##-related": 1622,
      "14": 1623,
      "quantitative": 1624,
      "light": 1625,
      "began": 1626,
      "manufacture": 1627,
      "almost": 1628,
      "others": 1629,
      "region": 1630,
      "unsecured": 1631,
      "separate": 1632,
      "1.5": 1633,
      "led": 1634,
      "adopted": 1635,
      "therefore": 1636,
      "raise": 1637,
      "summary": 1638,
      "j.": 1639,
      "statements,": 1640,
      "predict": 1641,
      "economy": 1642,
      "expanded": 1643,
      "classified": 1644,
      "24": 1645,
      "robert": 1646,
      "partnership": 1647,
      "consent": 1648,
      "towards": 1649,
      "smaller": 1650,
      "utilization": 1651,
      "##w": 1652,
      "referred": 1653,
      "meaningful": 1654,
      "specifically": 1655,
      "understand": 1656,
      "show": 1657,
      "trying": 1658,
      "paper": 1659,
      "2000,": 1660,
      "targets": 1661,
      "stock's": 1662,
      "segment,": 1663,
      "##or": 1664,
      "pleased": 1665,
      "performance,": 1666,
      "offers": 1667,
      "meeting": 1668,
      "7%": 1669,
      "coal": 1670,
      "##ic": 1671,
      "scheduled": 1672,
      "specified": 1673,
      "weeks": 1674,
      "futures": 1675,
      "entire": 1676,
      "data,": 1677,
      "starting": 1678,
      "guys": 1679,
      "##v": 1680,
      "shall": 1681,
      "i'll": 1682,
      "decisions": 1683,
      "##le": 1684,
      "qualified": 1685,
      "depends": 1686,
      "p/e": 1687,
      "offerings": 1688,
      "changing": 1689,
      "uncertainty": 1690,
      "remained": 1691,
      "estimates,": 1692,
      "co.,": 1693,
      "weak": 1694,
      "identify": 1695,
      "performed": 1696,
      "efficiency": 1697,
      "also,": 1698,
      "arising": 1699,
      "calendar": 1700,
      "##ation": 1701,
      "nearly": 1702,
      "document": 1703,
      "assuming": 1704,
      "index": 1705,
      "it,": 1706,
      "y/y": 1707,
      "allows": 1708,
      "governmental": 1709,
      "transfer": 1710,
      "partner": 1711,
      "28,": 1712,
      "enhance": 1713,
      "claim": 1714,
      "find": 1715,
      "recommended": 1716,
      "track": 1717,
      "force": 1718,
      "activities,": 1719,
      "twelve": 1720,
      "de": 1721,
      "200": 1722,
      "30%": 1723,
      "pending": 1724,
      "sequential": 1725,
      "spend": 1726,
      "too": 1727,
      "shipments": 1728,
      "capital,": 1729,
      "modest": 1730,
      "90": 1731,
      "agreed": 1732,
      "enable": 1733,
      "value,": 1734,
      "branch": 1735,
      "press": 1736,
      "remainder": 1737,
      "complex": 1738,
      "driving": 1739,
      "delivered": 1740,
      "report..": 1741,
      "registration": 1742,
      "contains": 1743,
      "numerous": 1744,
      "cibc": 1745,
      "relates": 1746,
      "fall": 1747,
      "difference": 1748,
      "cap": 1749,
      "franchise": 1750,
      "california": 1751,
      "stronger": 1752,
      "unrealized": 1753,
      "categories": 1754,
      "corresponding": 1755,
      "qualitative": 1756,
      "inventories": 1757,
      "weakness": 1758,
      "revised": 1759,
      "ii": 1760,
      "seasonal": 1761,
      "applied": 1762,
      "capabilities": 1763,
      "equivalent": 1764,
      "corporation,": 1765,
      "indebtedness": 1766,
      "details": 1767,
      "consist": 1768,
      "controls": 1769,
      "jpmorgan": 1770,
      "piper": 1771,
      "hard": 1772,
      "16": 1773,
      "west": 1774,
      "capex": 1775,
      "recommendation": 1776,
      "vehicle": 1777,
      "closed": 1778,
      "##ment": 1779,
      "video": 1780,
      "##en": 1781,
      "according": 1782,
      "ratios": 1783,
      "wide": 1784,
      "procedures": 1785,
      "dollars": 1786,
      "via": 1787,
      "networks": 1788,
      "australia": 1789,
      "industry,": 1790,
      "1.2": 1791,
      "suitable": 1792,
      "achieved": 1793,
      "seeks": 1794,
      "computer": 1795,
      "centers": 1796,
      "serve": 1797,
      "##ne": 1798,
      "cycle": 1799,
      "servicing": 1800,
      "execution": 1801,
      "prices,": 1802,
      "2.5": 1803,
      "locations": 1804,
      "mean,": 1805,
      "solely": 1806,
      "developments": 1807,
      "affecting": 1808,
      "caused": 1809,
      "ending": 1810,
      "status": 1811,
      "29,": 1812,
      "produced": 1813,
      "clearly": 1814,
      "history": 1815,
      "investments,": 1816,
      "director": 1817,
      "future,": 1818,
      "apply": 1819,
      "llc,": 1820,
      "facility,": 1821,
      "##00": 1822,
      "reasonably": 1823,
      "studies": 1824,
      "totaling": 1825,
      "clear": 1826,
      "merchandise": 1827,
      "uk": 1828,
      "automotive": 1829,
      "reach": 1830,
      "aircraft": 1831,
      "rest": 1832,
      "comment": 1833,
      "know,": 1834,
      "advice": 1835,
      "1.1": 1836,
      "risks,": 1837,
      "thing": 1838,
      "consolidation": 1839,
      "expanding": 1840,
      "commitment": 1841,
      "universe": 1842,
      "institution": 1843,
      "monthly": 1844,
      "1.0": 1845,
      "assumed": 1846,
      "eligible": 1847,
      "targeted": 1848,
      "employees,": 1849,
      "debt,": 1850,
      "rose": 1851,
      "listed": 1852,
      "field": 1853,
      "figure": 1854,
      "19": 1855,
      "offered": 1856,
      "conjunction": 1857,
      "extended": 1858,
      "news": 1859,
      "distributions": 1860,
      "royalty": 1861,
      "tier": 1862,
      "rate,": 1863,
      "businesses,": 1864,
      "licenses": 1865,
      "processes": 1866,
      "contingent": 1867,
      "shown": 1868,
      "bring": 1869,
      "semiconductor": 1870,
      "fasb": 1871,
      "planning": 1872,
      "scale": 1873,
      "daily": 1874,
      "web": 1875,
      "degree": 1876,
      "transmission": 1877,
      "hedge": 1878,
      "retirement": 1879,
      "1997": 1880,
      "ago": 1881,
      "inability": 1882,
      "bill": 1883,
      "further,": 1884,
      "engineering": 1885,
      "stable": 1886,
      "rising": 1887,
      "rule": 1888,
      "issuer": 1889,
      "implement": 1890,
      "human": 1891,
      "statutory": 1892,
      "middle": 1893,
      "reform": 1894,
      "somewhat": 1895,
      "color": 1896,
      "2,": 1897,
      "##co": 1898,
      "productivity": 1899,
      "shows": 1900,
      "steel": 1901,
      "comparison": 1902,
      "(3)": 1903,
      "furthermore,": 1904,
      "generating": 1905,
      "b": 1906,
      "james": 1907,
      "##rs": 1908,
      "housing": 1909,
      "disclosed": 1910,
      "said,": 1911,
      "today's": 1912,
      "committed": 1913,
      "yields": 1914,
      "express": 1915,
      "17": 1916,
      "judgments": 1917,
      "texas": 1918,
      "derivatives": 1919,
      "regard": 1920,
      "legislation": 1921,
      "talking": 1922,
      "condition,": 1923,
      "holdings": 1924,
      "poor's": 1925,
      "shareholder": 1926,
      "prospects": 1927,
      "anything": 1928,
      "confidence": 1929,
      "maximum": 1930,
      "lack": 1931,
      "political": 1932,
      "sense": 1933,
      "),": 1934,
      "publication": 1935,
      "bank,": 1936,
      "goal": 1937,
      "comp": 1938,
      "(which": 1939,
      "21": 1940,
      "dealer": 1941,
      "aggressive": 1942,
      "technology,": 1943,
      "1.3": 1944,
      "evaluating": 1945,
      "consulting": 1946,
      "analyst(s)": 1947,
      "challenges": 1948,
      "file": 1949,
      "detailed": 1950,
      "12%": 1951,
      "week": 1952,
      "basic": 1953,
      "exploration": 1954,
      "necessarily": 1955,
      "9%": 1956,
      "highest": 1957,
      "constitute": 1958,
      "program,": 1959,
      "hardware": 1960,
      "staff": 1961,
      "regulations,": 1962,
      "holders": 1963,
      "bps": 1964,
      "practices": 1965,
      "latin": 1966,
      "realize": 1967,
      "community": 1968,
      "generic": 1969,
      "occupancy": 1970,
      "former": 1971,
      "one-time": 1972,
      "expectation": 1973,
      "funded": 1974,
      "establish": 1975,
      "organization": 1976,
      "auto": 1977,
      "hedging": 1978,
      "william": 1979,
      "operates": 1980,
      "europe,": 1981,
      "discuss": 1982,
      "fairly": 1983,
      "granted": 1984,
      "spread": 1985,
      "exhibit": 1986,
      "changed": 1987,
      "list": 1988,
      "ebit": 1989,
      "1999,": 1990,
      "implied": 1991,
      "ultimately": 1992,
      "served": 1993,
      "finally,": 1994,
      "in,": 1995,
      "traffic": 1996,
      "sequentially": 1997,
      "seems": 1998,
      "tell": 1999,
      "facilities,": 2000,
      "sites": 2001,
      "presentation": 2002,
      "joining": 2003,
      "taxes,": 2004,
      "acquisition,": 2005,
      "main": 2006,
      "rent": 2007,
      "limitations": 2008,
      "increasingly": 2009,
      "above,": 2010,
      "interim": 2011,
      "##ble": 2012,
      "detail": 2013,
      "u.k.": 2014,
      "cash,": 2015,
      "collection": 2016,
      "a.": 2017,
      "discounted": 2018,
      "affiliate": 2019,
      "manner": 2020,
      "capitalized": 2021,
      "letters": 2022,
      "users": 2023,
      "guaranteed": 2024,
      "1.4": 2025,
      "300": 2026,
      "reference": 2027,
      "corp.": 2028,
      "conducted": 2029,
      "execute": 2030,
      "##st": 2031,
      "rise": 2032,
      "distributors": 2033,
      "central": 2034,
      "utilize": 2035,
      "defense": 2036,
      "2.0": 2037,
      "launched": 2038,
      "device": 2039,
      "reason": 2040,
      "count": 2041,
      "objectivity": 2042,
      "external": 2043,
      "portfolio,": 2044,
      "##man": 2045,
      "inherent": 2046,
      "exclusive": 2047,
      "determining": 2048,
      "implemented": 2049,
      "opinion": 2050,
      "##z": 2051,
      "attract": 2052,
      "price,": 2053,
      "selected": 2054,
      "concerns": 2055,
      "et": 2056,
      "placed": 2057,
      "toward": 2058,
      "crude": 2059,
      "##e,": 2060,
      "40%": 2061,
      "appreciation": 2062,
      "replacement": 2063,
      "metrics": 2064,
      "near-term": 2065,
      "travel": 2066,
      "chain": 2067,
      "administration": 2068,
      "raising": 2069,
      "allocated": 2070,
      "##a,": 2071,
      "canada,": 2072,
      "monitor": 2073,
      "forma": 2074,
      "constant": 2075,
      "advance": 2076,
      "accepted": 2077,
      "##ce": 2078,
      "unique": 2079,
      "created": 2080,
      "meaning": 2081,
      "jaffray": 2082,
      "##te": 2083,
      "sets": 2084,
      "fleet": 2085,
      "11%": 2086,
      "code": 2087,
      "differences": 2088,
      "notice": 2089,
      "ask": 2090,
      "chairman": 2091,
      "equipment,": 2092,
      "carry": 2093,
      "evaluation": 2094,
      "commercialization": 2095,
      "##u": 2096,
      "australian": 2097,
      "effort": 2098,
      "follow": 2099,
      "accepts": 2100,
      "receiving": 2101,
      "date,": 2102,
      "paul": 2103,
      "jurisdictions": 2104,
      "100%": 2105,
      "##ers": 2106,
      "looks": 2107,
      "cumulative": 2108,
      "acceptable": 2109,
      "jurisdiction": 2110,
      "purchasing": 2111,
      "purpose": 2112,
      "acceptance": 2113,
      "subordinated": 2114,
      "reviewed": 2115,
      "fees,": 2116,
      "treasury": 2117,
      "cases": 2118,
      "was,": 2119,
      "##5%": 2120,
      "pursue": 2121,
      "inflation": 2122,
      "broader": 2123,
      "quick": 2124,
      "profitable": 2125,
      "momentum": 2126,
      "assess": 2127,
      "call,": 2128,
      "officers": 2129,
      "bear": 2130,
      "70": 2131,
      "her": 2132,
      "welcome": 2133,
      "temporary": 2134,
      "##is": 2135,
      "year-end": 2136,
      "concerning": 2137,
      "collaboration": 2138,
      "wanted": 2139,
      "damage": 2140,
      "profile": 2141,
      "peer": 2142,
      "engaged": 2143,
      "3,": 2144,
      "post": 2145,
      "non-u.s.": 2146,
      "satisfy": 2147,
      "property,": 2148,
      "request": 2149,
      "extensive": 2150,
      "buy,": 2151,
      "cases,": 2152,
      "president,": 2153,
      "morning,": 2154,
      "##th": 2155,
      "question,": 2156,
      "methodology": 2157,
      "u.s.,": 2158,
      "turning": 2159,
      "family": 2160,
      "useful": 2161,
      "adding": 2162,
      "industries": 2163,
      "today,": 2164,
      "80": 2165,
      "tools": 2166,
      "operated": 2167,
      "positioned": 2168,
      "bottom": 2169,
      "levels,": 2170,
      "restaurant": 2171,
      "authorities": 2172,
      "disease": 2173,
      "annualized": 2174,
      "officer,": 2175,
      "benchmark": 2176,
      "publicly": 2177,
      "e": 2178,
      "minority": 2179,
      "buying": 2180,
      "governing": 2181,
      "entertainment": 2182,
      "1998,": 2183,
      "seven": 2184,
      "participate": 2185,
      "(iii)": 2186,
      "answer": 2187,
      "projections": 2188,
      "started": 2189,
      "following:": 2190,
      "reit": 2191,
      "liabilities,": 2192,
      "thanks,": 2193,
      "22": 2194,
      "regions": 2195,
      "you've": 2196,
      "35": 2197,
      "deemed": 2198,
      "bmo": 2199,
      "outcome": 2200,
      "rapid": 2201,
      "declining": 2202,
      "ultimate": 2203,
      "programs,": 2204,
      "hotel": 2205,
      "1.6": 2206,
      "laws,": 2207,
      "1.9": 2208,
      "drugs": 2209,
      "updated": 2210,
      "owns": 2211,
      "1996": 2212,
      "environment,": 2213,
      "iii": 2214,
      "takes": 2215,
      "measured": 2216,
      "chase": 2217,
      "bad": 2218,
      "earning": 2219,
      "america,": 2220,
      "step": 2221,
      "first,": 2222,
      "believed": 2223,
      "quickly": 2224,
      "act,": 2225,
      "1.8": 2226,
      "thus": 2227,
      "excludes": 2228,
      "periodic": 2229,
      "(a)": 2230,
      "31": 2231,
      "drivers": 2232,
      "consisted": 2233,
      "##nt": 2234,
      "western": 2235,
      "intends": 2236,
      "what's": 2237,
      "disposal": 2238,
      "distribute": 2239,
      "##.0": 2240,
      "absolute": 2241,
      "san": 2242,
      "repurchases": 2243,
      "accelerated": 2244,
      "uncertain": 2245,
      "risk,": 2246,
      "##el": 2247,
      "committee": 2248,
      "23": 2249,
      "product,": 2250,
      "morning": 2251,
      "include:": 2252,
      "supplies": 2253,
      "moreover,": 2254,
      "flexibility": 2255,
      "insured": 2256,
      "lose": 2257,
      "question-and-answer": 2258,
      "secure": 2259,
      "amortized": 2260,
      "television": 2261,
      "1.7": 2262,
      "scott": 2263,
      "assumes": 2264,
      "mike": 2265,
      "allocation": 2266,
      "brokerage": 2267,
      "awards": 2268,
      "recurring": 2269,
      "attention": 2270,
      "closely": 2271,
      "pace": 2272,
      "copyright": 2273,
      "training": 2274,
      "*": 2275,
      "relate": 2276,
      "commissions": 2277,
      "side,": 2278,
      "determination": 2279,
      "problems": 2280,
      "enhanced": 2281,
      "technological": 2282,
      "raised": 2283,
      "situation": 2284,
      "losses,": 2285,
      "vendors": 2286,
      "2.2": 2287,
      "challenging": 2288,
      "faster": 2289,
      "accuracy": 2290,
      "accurate": 2291,
      "i'd": 2292,
      "promotional": 2293,
      "methods": 2294,
      "volatile": 2295,
      "solution": 2296,
      "permitted": 2297,
      "##mm": 2298,
      "ten": 2299,
      "play": 2300,
      "leasing": 2301,
      "indirect": 2302,
      "ceo": 2303,
      "mexico": 2304,
      "2.1": 2305,
      "repayment": 2306,
      "13%": 2307,
      "noninterest": 2308,
      "occurred": 2309,
      "east": 2310,
      "##.com": 2311,
      "essentially": 2312,
      "certify": 2313,
      "pc": 2314,
      "traded": 2315,
      "understanding": 2316,
      "cowen": 2317,
      "supplier": 2318,
      "include,": 2319,
      "safe": 2320,
      "fundamental": 2321,
      "obtaining": 2322,
      "contributions": 2323,
      "any,": 2324,
      "1)": 2325,
      "overall,": 2326,
      "signed": 2327,
      "models": 2328,
      "10-q": 2329,
      "pages": 2330,
      "issuers": 2331,
      "worth": 2332,
      "introduced": 2333,
      "prime": 2334,
      "extend": 2335,
      "##ar": 2336,
      "manufacturer": 2337,
      "requiring": 2338,
      "driver": 2339,
      "transactions,": 2340,
      "presence": 2341,
      "objectives": 2342,
      "paying": 2343,
      "•": 2344,
      "try": 2345,
      "india": 2346,
      "city": 2347,
      "objectives,": 2348,
      "repurchased": 2349,
      "they're": 2350,
      "behalf": 2351,
      "maintained": 2352,
      "filing": 2353,
      "lost": 2354,
      "conservative": 2355,
      "confident": 2356,
      "needed": 2357,
      "part,": 2358,
      "deals": 2359,
      "fluctuate": 2360,
      "measurement": 2361,
      "in-line": 2362,
      "cancer": 2363,
      "stores,": 2364,
      "exceeded": 2365,
      "hand": 2366,
      "association": 2367,
      "thinking": 2368,
      "2.3": 2369,
      "called": 2370,
      "75": 2371,
      "s.": 2372,
      "be,": 2373,
      "peak": 2374,
      "met": 2375,
      "running": 2376,
      "description": 2377,
      "impacts": 2378,
      "offices": 2379,
      "fdic": 2380,
      "earnings,": 2381,
      "wondering": 2382,
      "45": 2383,
      "voting": 2384,
      "contracts,": 2385,
      "tangible": 2386,
      "charged": 2387,
      "representation": 2388,
      "engage": 2389,
      "posted": 2390,
      "union": 2391,
      "whose": 2392,
      "enough": 2393,
      "bonds": 2394,
      "requirement": 2395,
      "including,": 2396,
      "principles": 2397,
      "##ch": 2398,
      "##ent": 2399,
      "agreements,": 2400,
      "session": 2401,
      "i,": 2402,
      "indicate": 2403,
      "##ra": 2404,
      "gaming": 2405,
      "scope": 2406,
      "offshore": 2407,
      "behind": 2408,
      "48": 2409,
      "kingdom": 2410,
      "relations": 2411,
      "them,": 2412,
      "year-to-date": 2413,
      "proceedings": 2414,
      "chemical": 2415,
      "2.4": 2416,
      "presents": 2417,
      "agent": 2418,
      "slow": 2419,
      "subscription": 2420,
      "all,": 2421,
      "southern": 2422,
      "monitoring": 2423,
      "maturities": 2424,
      "indication": 2425,
      "terms,": 2426,
      "feet": 2427,
      "job": 2428,
      "27": 2429,
      "150": 2430,
      "0.5": 2431,
      "criteria": 2432,
      "conflicts": 2433,
      "pacific": 2434,
      "c": 2435,
      "there,": 2436,
      "##q": 2437,
      "medicaid": 2438,
      "general,": 2439,
      "plants": 2440,
      "steve": 2441,
      "objective": 2442,
      "28": 2443,
      "fell": 2444,
      "smith": 2445,
      "accelerate": 2446,
      "2)": 2447,
      "took": 2448,
      "offsetting": 2449,
      "opening": 2450,
      "cell": 2451,
      "head": 2452,
      "14%": 2453,
      "##ry": 2454,
      "26": 2455,
      "plans,": 2456,
      "grant": 2457,
      "##’": 2458,
      "year's": 2459,
      "view,": 2460,
      "filings": 2461,
      "penetration": 2462,
      "2019": 2463,
      "built": 2464,
      "3.5": 2465,
      "certification": 2466,
      "particular,": 2467,
      "audit": 2468,
      "individuals": 2469,
      "parent": 2470,
      "capitalization": 2471,
      "think,": 2472,
      "mid": 2473,
      "##re": 2474,
      "monetary": 2475,
      "budget": 2476,
      "27,": 2477,
      "title": 2478,
      "away": 2479,
      "retained": 2480,
      "forecasts": 2481,
      "w.": 2482,
      "reached": 2483,
      "hit": 2484,
      "goldman": 2485,
      "bankruptcy": 2486,
      "hospital": 2487,
      "legacy": 2488,
      "position,": 2489,
      "double": 2490,
      "affiliated": 2491,
      "trades": 2492,
      "(loss)": 2493,
      "evidence": 2494,
      "interest,": 2495,
      "lenders": 2496,
      "diversified": 2497,
      "rig": 2498,
      "radio": 2499,
      "seeking": 2500,
      "n": 2501,
      "user": 2502,
      "compares": 2503,
      "obviously,": 2504,
      "brian": 2505,
      "visibility": 2506,
      "inc": 2507,
      "retailers": 2508,
      "technologies,": 2509,
      "front": 2510,
      "mostly": 2511,
      "libor": 2512,
      "packaging": 2513,
      "400": 2514,
      "repay": 2515,
      "became": 2516,
      "1997,": 2517,
      "basically": 2518,
      "prove": 2519,
      "waste": 2520,
      "long-lived": 2521,
      "off-balance": 2522,
      "approvals": 2523,
      "relied": 2524,
      "c.": 2525,
      "homes": 2526,
      "cloud": 2527,
      "electronics": 2528,
      "none": 2529,
      "freight": 2530,
      "10,": 2531,
      "considering": 2532,
      "service,": 2533,
      "exclude": 2534,
      "drop": 2535,
      "m.": 2536,
      "mutual": 2537,
      "1995": 2538,
      "participating": 2539,
      "recover": 2540,
      "assumption": 2541,
      "weaker": 2542,
      "stage": 2543,
      "impaired": 2544,
      "calculation": 2545,
      "guidance,": 2546,
      "assure": 2547,
      "for,": 2548,
      "thought": 2549,
      "achieving": 2550,
      "room": 2551,
      "mining": 2552,
      "participants": 2553,
      "12-18": 2554,
      "leased": 2555,
      "renewal": 2556,
      "appreciate": 2557,
      "discussions": 2558,
      "organizations": 2559,
      "solar": 2560,
      "plan,": 2561,
      "education": 2562,
      "forward,": 2563,
      "entitled": 2564,
      "becomes": 2565,
      "introduction": 2566,
      "(b)": 2567,
      "ways": 2568,
      "employment": 2569,
      "export": 2570,
      "advances": 2571,
      "credits": 2572,
      "utilities": 2573,
      "limits": 2574,
      "efficient": 2575,
      "system,": 2576,
      "ltd": 2577,
      "##de": 2578,
      "2.6": 2579,
      "gives": 2580,
      "involves": 2581,
      "bookings": 2582,
      "spent": 2583,
      "warranty": 2584,
      "ramp": 2585,
      "expenditures,": 2586,
      "appear": 2587,
      "everyone": 2588,
      "yoy": 2589,
      "##?": 2590,
      "merchant": 2591,
      "performing": 2592,
      "damages": 2593,
      "replace": 2594,
      "assigned": 2595,
      "manager": 2596,
      "##tion": 2597,
      "comps": 2598,
      "richard": 2599,
      "##ive": 2600,
      "adjust": 2601,
      "calls": 2602,
      "robust": 2603,
      "commercialize": 2604,
      "reconciliation": 2605,
      "headcount": 2606,
      "gulf": 2607,
      "elsewhere": 2608,
      "3.0": 2609,
      "swap": 2610,
      "non-interest": 2611,
      "civil": 2612,
      "marketable": 2613,
      "equities": 2614,
      "notes,": 2615,
      "enforcement": 2616,
      "rapidly": 2617,
      "0.2": 2618,
      "features": 2619,
      "##se": 2620,
      "difficulties": 2621,
      "55": 2622,
      "chart": 2623,
      "redemption": 2624,
      "therapy": 2625,
      "brought": 2626,
      "leadership": 2627,
      "0.3": 2628,
      "terminate": 2629,
      "##based": 2630,
      "function": 2631,
      "reliable": 2632,
      "items,": 2633,
      "superior": 2634,
      "exit": 2635,
      "35%": 2636,
      "benefited": 2637,
      "manufactured": 2638,
      "contribute": 2639,
      "expectations,": 2640,
      "sells": 2641,
      "eight": 2642,
      "2.7": 2643,
      "such,": 2644,
      "##ting": 2645,
      "circumstances,": 2646,
      "mac": 2647,
      "slower": 2648,
      "marketing,": 2649,
      "regulators": 2650,
      "consisting": 2651,
      "##s)": 2652,
      "pressures": 2653,
      "(and": 2654,
      "65": 2655,
      "by,": 2656,
      "opened": 2657,
      "sum": 2658,
      "shipping": 2659,
      "highlights": 2660,
      "upgrade": 2661,
      "immediately": 2662,
      "channels": 2663,
      "old": 2664,
      "directors,": 2665,
      "search": 2666,
      "permits": 2667,
      "perhaps": 2668,
      "subsidiaries,": 2669,
      "healthy": 2670,
      "payroll": 2671,
      "utilized": 2672,
      "steps": 2673,
      "term,": 2674,
      "slight": 2675,
      "affiliates,": 2676,
      "margins,": 2677,
      "expiration": 2678,
      "strategy,": 2679,
      "allowed": 2680,
      "participation": 2681,
      "estimate,": 2682,
      "carriers": 2683,
      "producing": 2684,
      "bond": 2685,
      "structured": 2686,
      "tend": 2687,
      "released": 2688,
      "recipients": 2689,
      "2.8": 2690,
      "asu": 2691,
      "gold": 2692,
      "fundamentals": 2693,
      "expecting": 2694,
      "win": 2695,
      "corp.,": 2696,
      "sensitive": 2697,
      "operators": 2698,
      "events,": 2699,
      "ffo": 2700,
      "ordinary": 2701,
      "8,": 2702,
      "vehicles": 2703,
      "branded": 2704,
      "maintains": 2705,
      "##d,": 2706,
      "amendment": 2707,
      "ag": 2708,
      "telecommunications": 2709,
      "restated": 2710,
      "##ty": 2711,
      "district": 2712,
      "##y,": 2713,
      "resolution": 2714,
      "[operator": 2715,
      "ad": 2716,
      "restaurants": 2717,
      "resource": 2718,
      "impose": 2719,
      "receipt": 2720,
      "extremely": 2721,
      "enrollment": 2722,
      "trademarks": 2723,
      "16%": 2724,
      "0.4": 2725,
      "cut": 2726,
      "ge": 2727,
      "then,": 2728,
      "integrate": 2729,
      "recipient": 2730,
      "9,": 2731,
      "##et": 2732,
      "process,": 2733,
      "advisor": 2734,
      "whom": 2735,
      "ventures": 2736,
      "ag,": 2737,
      "penalties": 2738,
      "##um": 2739,
      "summarizes": 2740,
      "retention": 2741,
      "reliable,": 2742,
      "qualify": 2743,
      "jim": 2744,
      "underweight": 2745,
      "giving": 2746,
      "designated": 2747,
      "spot": 2748,
      "regular": 2749,
      "focusing": 2750,
      "fewer": 2751,
      "accumulated": 2752,
      "##ll": 2753,
      "0.1": 2754,
      "scientific": 2755,
      "royalties": 2756,
      "ltd.,": 2757,
      "charge-offs": 2758,
      "oppenheimer": 2759,
      "severance": 2760,
      "percent,": 2761,
      "properties,": 2762,
      "ltd.": 2763,
      "select": 2764,
      "pass": 2765,
      "representative": 2766,
      "reputation": 2767,
      "reasons": 2768,
      "subscriber": 2769,
      "communication": 2770,
      "lowering": 2771,
      "##]": 2772,
      "comparisons": 2773,
      "foreseeable": 2774,
      "liquid": 2775,
      "comfortable": 2776,
      "gap": 2777,
      "guarantees": 2778,
      "nuclear": 2779,
      "deterioration": 2780,
      "with,": 2781,
      "priced": 2782,
      "rigs": 2783,
      "permit": 2784,
      "49": 2785,
      "fy": 2786,
      "schedule": 2787,
      "lesser": 2788,
      "supporting": 2789,
      "physical": 2790,
      "additions": 2791,
      "securities/instruments": 2792,
      "letter": 2793,
      "nothing": 2794,
      "thomas": 2795,
      "##8%": 2796,
      "control,": 2797,
      "acquiring": 2798,
      "margin,": 2799,
      "electricity": 2800,
      "resources,": 2801,
      "mature": 2802,
      "17%": 2803,
      "delivering": 2804,
      "say,": 2805,
      "share-based": 2806,
      "indicative": 2807,
      "introduce": 2808,
      "##ine": 2809,
      "matter": 2810,
      "thousand": 2811,
      "prohibited": 2812,
      "firms": 2813,
      "aspects": 2814,
      "respond": 2815,
      "obligations,": 2816,
      "assumptions,": 2817,
      "helped": 2818,
      "expertise": 2819,
      "delaware": 2820,
      "tv": 2821,
      "choose": 2822,
      "250": 2823,
      "never": 2824,
      "expensive": 2825,
      "subscribers": 2826,
      "physicians": 2827,
      "29": 2828,
      "macro": 2829,
      "excited": 2830,
      "went": 2831,
      "18%": 2832,
      "quarters,": 2833,
      "translation": 2834,
      "characteristics": 2835,
      "demand,": 2836,
      "thereby": 2837,
      "credit,": 2838,
      "oem": 2839,
      "extension": 2840,
      "charges,": 2841,
      "taiwan": 2842,
      "7,": 2843,
      "elements": 2844,
      "60%": 2845,
      "ip": 2846,
      "repair": 2847,
      "leader": 2848,
      "truck": 2849,
      "47": 2850,
      "##\"),": 2851,
      "prepayment": 2852,
      "36": 2853,
      "materials,": 2854,
      "construed": 2855,
      "exposed": 2856,
      "overhead": 2857,
      "##”)": 2858,
      "r": 2859,
      "chris": 2860,
      "valued": 2861,
      "synergies": 2862,
      "broadband": 2863,
      "which,": 2864,
      "mitigate": 2865,
      "46": 2866,
      "accompanying": 2867,
      "initiated": 2868,
      "25,": 2869,
      "innovation": 2870,
      "dates": 2871,
      "warrants": 2872,
      "2.9": 2873,
      "sustained": 2874,
      "moderate": 2875,
      "groups": 2876,
      "##da": 2877,
      "usage": 2878,
      "follows:": 2879,
      "aerospace": 2880,
      "point,": 2881,
      "hotels": 2882,
      "tom": 2883,
      "stay": 2884,
      "26,": 2885,
      "##na": 2886,
      "11,": 2887,
      "royal": 2888,
      "prospective": 2889,
      "unconsolidated": 2890,
      "jeff": 2891,
      "specifically,": 2892,
      "carrier": 2893,
      "satellite": 2894,
      "car": 2895,
      "slowdown": 2896,
      "london": 2897,
      "abbott": 2898,
      "grade": 2899,
      "newly": 2900,
      "disruption": 2901,
      "tenant": 2902,
      "##n,": 2903,
      "##ã": 2904,
      "(up": 2905,
      "52": 2906,
      "4q": 2907,
      "from,": 2908,
      "32": 2909,
      "80%": 2910,
      "annually": 2911,
      "this,": 2912,
      "follow-up": 2913,
      "mentioned,": 2914,
      "originally": 2915,
      "arrangement": 2916,
      "0.6": 2917,
      "##ia": 2918,
      "one,": 2919,
      "effectiveness": 2920,
      "duration": 2921,
      "2q": 2922,
      "hope": 2923,
      "efficacy": 2924,
      "no,": 2925,
      "3.1": 2926,
      "florida": 2927,
      "marketplace": 2928,
      "fact,": 2929,
      "to:": 2930,
      "merrill": 2931,
      "red": 2932,
      "##ate": 2933,
      "prepaid": 2934,
      "##/": 2935,
      "indirectly": 2936,
      "platforms": 2937,
      "##3%": 2938,
      "probable": 2939,
      "neither": 2940,
      "location": 2941,
      "herein,": 2942,
      "modestly": 2943,
      "normalized": 2944,
      "involving": 2945,
      "milestone": 2946,
      "directed": 2947,
      "supported": 2948,
      "##ge": 2949,
      "consistently": 2950,
      "thus,": 2951,
      "biggest": 2952,
      "asc": 2953,
      "employed": 2954,
      "partners,": 2955,
      "3q": 2956,
      "4,": 2957,
      "12,": 2958,
      "therapeutic": 2959,
      "subsidiary,": 2960,
      "competing": 2961,
      "3.2": 2962,
      "quality,": 2963,
      "including:": 2964,
      "interested": 2965,
      "telephone": 2966,
      "shares,": 2967,
      "covering": 2968,
      "securitization": 2969,
      "discretionary": 2970,
      "##0%": 2971,
      "hazardous": 2972,
      "euro": 2973,
      "currencies": 2974,
      "allowances": 2975,
      "1996,": 2976,
      "implementing": 2977,
      "stockholder": 2978,
      "efficiencies": 2979,
      "earn": 2980,
      "label": 2981,
      "remind": 2982,
      "preclinical": 2983,
      "acceleration": 2984,
      "china,": 2985,
      "##os": 2986,
      "casualty": 2987,
      "broker": 2988,
      "tough": 2989,
      "andrew": 2990,
      "##one": 2991,
      "actively": 2992,
      "line,": 2993,
      "gm": 2994,
      "model,": 2995,
      "44": 2996,
      "payments,": 2997,
      "germany": 2998,
      "tests": 2999,
      "after-tax": 3000,
      "on,": 3001,
      "oral": 3002,
      "attributed": 3003,
      "##ts": 3004,
      "voice": 3005,
      "3.3": 3006,
      "investor's": 3007,
      "communities": 3008,
      "adjusting": 3009,
      "(excluding": 3010,
      "##);": 3011,
      "trends,": 3012,
      "overview": 3013,
      "moved": 3014,
      "##as": 3015,
      "fx": 3016,
      "ago,": 3017,
      "pricing,": 3018,
      "past,": 3019,
      "reliance": 3020,
      "write": 3021,
      "##ies": 3022,
      "specialized": 3023,
      "digit": 3024,
      "federal,": 3025,
      "severe": 3026,
      "million)": 3027,
      "not,": 3028,
      "clean": 3029,
      "##ton": 3030,
      "treat": 3031,
      "words": 3032,
      "named": 3033,
      "generally,": 3034,
      "wealth": 3035,
      "##ity": 3036,
      "double-digit": 3037,
      "##6%": 3038,
      "0.8": 3039,
      "agents": 3040,
      "##ing,": 3041,
      "bringing": 3042,
      "interpretation": 3043,
      "same-store": 3044,
      "metal": 3045,
      "modified": 3046,
      "discovery": 3047,
      "periods,": 3048,
      "consecutive": 3049,
      "blood": 3050,
      "0.7": 3051,
      "historically,": 3052,
      "possibility": 3053,
      "becoming": 3054,
      "unidentified": 3055,
      "brazil": 3056,
      "season": 3057,
      "marketed": 3058,
      "linked": 3059,
      "33": 3060,
      "estimates.": 3061,
      "forecasted": 3062,
      "secondary": 3063,
      "expire": 3064,
      "coupled": 3065,
      "electrical": 3066,
      "##up": 3067,
      "##9%": 3068,
      "ranging": 3069,
      "terminated": 3070,
      "canaccord": 3071,
      "##related": 3072,
      "soft": 3073,
      "wholly": 3074,
      "iv": 3075,
      "nice": 3076,
      "overweight": 3077,
      "fcf": 3078,
      "innovative": 3079,
      "exceeds": 3080,
      "priority": 3081,
      "insurance,": 3082,
      "individually": 3083,
      "4.5": 3084,
      "##.5": 3085,
      "14,": 3086,
      "treated": 3087,
      "fcc": 3088,
      "pharmaceuticals": 3089,
      "##2%": 3090,
      "utilizing": 3091,
      "server": 3092,
      "downside": 3093,
      "bp": 3094,
      "##ted": 3095,
      "chemicals": 3096,
      "r.": 3097,
      "executed": 3098,
      "installed": 3099,
      "guidelines": 3100,
      "indicates": 3101,
      "1q": 3102,
      "purposes,": 3103,
      "interest-bearing": 3104,
      "remediation": 3105,
      "##ter": 3106,
      "anticipates": 3107,
      ":": 3108,
      "hospitals": 3109,
      "denominated": 3110,
      "distributor": 3111,
      "change,": 3112,
      "programming": 3113,
      "northern": 3114,
      "lowered": 3115,
      "l.": 3116,
      "creating": 3117,
      "dealers": 3118,
      "course,": 3119,
      "finished": 3120,
      "indirectly,": 3121,
      "holder": 3122,
      "vendor": 3123,
      "##ex": 3124,
      "household": 3125,
      "delayed": 3126,
      "managers": 3127,
      "reviews": 3128,
      "policies,": 3129,
      "solutions,": 3130,
      "borrowers": 3131,
      "contributing": 3132,
      "game": 3133,
      "3.4": 3134,
      "valuations": 3135,
      "citigroup": 3136,
      "cost,": 3137,
      "trademark": 3138,
      "70%": 3139,
      "peers": 3140,
      "##1,": 3141,
      "framework": 3142,
      "restrict": 3143,
      "non-recurring": 3144,
      "broadcast": 3145,
      "engine": 3146,
      "usually": 3147,
      "entry": 3148,
      "followed": 3149,
      "fhlb": 3150,
      "1a.": 3151,
      "unchanged": 3152,
      "##m,": 3153,
      "influence": 3154,
      "(4)": 3155,
      "definitions": 3156,
      "ever": 3157,
      "closer": 3158,
      "non": 3159,
      "independently": 3160,
      "##r,": 3161,
      "seasonality": 3162,
      "initially": 3163,
      "preceding": 3164,
      "regardless": 3165,
      "nonperforming": 3166,
      "entering": 3167,
      "production,": 3168,
      "pick": 3169,
      "countries,": 3170,
      "compare": 3171,
      "ladies": 3172,
      "peter": 3173,
      "beat": 3174,
      "##age": 3175,
      "instrument": 3176,
      "goes": 3177,
      "disruptions": 3178,
      "##4%": 3179,
      "5.0": 3180,
      "attempt": 3181,
      "4.0": 3182,
      "##it": 3183,
      "internally": 3184,
      "relation": 3185,
      "full-year": 3186,
      "sharing": 3187,
      "13,": 3188,
      "student": 3189,
      "q": 3190,
      "apparel": 3191,
      "supplemental": 3192,
      "salaries": 3193,
      "rights,": 3194,
      "intel": 3195,
      "ground": 3196,
      "kevin": 3197,
      "units,": 3198,
      "request.": 3199,
      "multiples": 3200,
      "##x,": 3201,
      "34": 3202,
      "increase,": 3203,
      "tons": 3204,
      "claims,": 3205,
      "amendments": 3206,
      "3.6": 3207,
      "bob": 3208,
      "live": 3209,
      "funds,": 3210,
      "infringement": 3211,
      "case,": 3212,
      "analysis,": 3213,
      "composition": 3214,
      "clients,": 3215,
      "others,": 3216,
      "hi,": 3217,
      "##,000,": 3218,
      "p.": 3219,
      "segments,": 3220,
      "problem": 3221,
      "floor": 3222,
      "thereâ": 3223,
      "0.9": 3224,
      "johnson": 3225,
      "suggests": 3226,
      "latest": 3227,
      "perspective": 3228,
      "##7%": 3229,
      "membership": 3230,
      "portfolios": 3231,
      "divided": 3232,
      "circulation": 3233,
      "population": 3234,
      "annuity": 3235,
      "challenge": 3236,
      "downturn": 3237,
      "wind": 3238,
      "submitted": 3239,
      "summer": 3240,
      "90%": 3241,
      "benefits,": 3242,
      "personnel,": 3243,
      "excluded": 3244,
      "impacting": 3245,
      "dan": 3246,
      "reiterate": 3247,
      "expected,": 3248,
      "let's": 3249,
      "borrower": 3250,
      "optimistic": 3251,
      "marine": 3252,
      "sustainable": 3253,
      "liquidity,": 3254,
      "copper": 3255,
      "banking,": 3256,
      "showed": 3257,
      "##12": 3258,
      "activity,": 3259,
      "##10": 3260,
      "firm's": 3261,
      "targeting": 3262,
      "##son": 3263,
      "implies": 3264,
      "medium": 3265,
      "sensitivity": 3266,
      "heavy": 3267,
      "practice": 3268,
      "may,": 3269,
      "discounts": 3270,
      "bulk": 3271,
      "below,": 3272,
      "##ey": 3273,
      "block": 3274,
      "role": 3275,
      "cautious": 3276,
      "difficulty": 3277,
      "53": 3278,
      "##ta": 3279,
      "physician": 3280,
      "flow,": 3281,
      "concern": 3282,
      "enables": 3283,
      "ship": 3284,
      "inc,": 3285,
      "120": 3286,
      "enacted": 3287,
      "showing": 3288,
      "indications": 3289,
      "todayâ": 3290,
      "##j": 3291,
      "available,": 3292,
      "candidate": 3293,
      "social": 3294,
      "serves": 3295,
      "minus": 3296,
      "master": 3297,
      "imposed": 3298,
      "##1%": 3299,
      "military": 3300,
      "flows,": 3301,
      "boston": 3302,
      "up,": 3303,
      "3.7": 3304,
      "16,": 3305,
      "serving": 3306,
      "projects,": 3307,
      "investment,": 3308,
      "heavily": 3309,
      "changes,": 3310,
      "eastern": 3311,
      "passed": 3312,
      "tenants": 3313,
      "compensation,": 3314,
      "4.1": 3315,
      "options,": 3316,
      "steady": 3317,
      "declared": 3318,
      "owners": 3319,
      "regularly": 3320,
      "mass": 3321,
      "(a": 3322,
      "wholly-owned": 3323,
      "candidates,": 3324,
      "warehouse": 3325,
      "carefully": 3326,
      "commercially": 3327,
      "adequacy": 3328,
      "falls": 3329,
      "ford": 3330,
      "adequately": 3331,
      "holiday": 3332,
      "fiber": 3333,
      "proved": 3334,
      "typical": 3335,
      "follows": 3336,
      "3.8": 3337,
      "formed": 3338,
      "3)": 3339,
      "epa": 3340,
      "e.": 3341,
      "costly": 3342,
      "have,": 3343,
      "##est": 3344,
      "##.2": 3345,
      "19%": 3346,
      "0.02": 3347,
      "marks": 3348,
      "##ke": 3349,
      "professionals": 3350,
      "right,": 3351,
      "recall": 3352,
      "consumption": 3353,
      "adds": 3354,
      "exactly": 3355,
      "second,": 3356,
      "itself": 3357,
      "suspended": 3358,
      "cyclical": 3359,
      "petroleum": 3360,
      "embedded": 3361,
      "approximate": 3362,
      "bearing": 3363,
      "5,": 3364,
      "mortgages": 3365,
      "controlled": 3366,
      "circuit": 3367,
      "law,": 3368,
      "establishing": 3369,
      "22%": 3370,
      "evaluated": 3371,
      "allowing": 3372,
      "split": 3373,
      "assist": 3374,
      "capture": 3375,
      "suggest": 3376,
      "occurrence": 3377,
      "origination": 3378,
      "disposition": 3379,
      "acts": 3380,
      "nyse": 3381,
      "likelihood": 3382,
      "box": 3383,
      "guess,": 3384,
      "##.1": 3385,
      "consequently,": 3386,
      "calculate": 3387,
      "fin": 3388,
      "4.3": 3389,
      "holds": 3390,
      "demonstrated": 3391,
      "##ss": 3392,
      "guided": 3393,
      "officers,": 3394,
      "perspective,": 3395,
      "investigation": 3396,
      "arise": 3397,
      "reportable": 3398,
      "display": 3399,
      "applications,": 3400,
      "york,": 3401,
      "wall": 3402,
      "shopping": 3403,
      "design,": 3404,
      "##.3": 3405,
      "undertake": 3406,
      "example": 3407,
      "21%": 3408,
      "excellent": 3409,
      "sun": 3410,
      "day,": 3411,
      "guide": 3412,
      "charter": 3413,
      "elect": 3414,
      "##nce": 3415,
      "didn't": 3416,
      "age": 3417,
      "600": 3418,
      "refinance": 3419,
      "m&a": 3420,
      "0.01": 3421,
      "teams": 3422,
      "theyâ": 3423,
      "lives": 3424,
      "##year": 3425,
      "holdings,": 3426,
      "d.": 3427,
      "award": 3428,
      "reports,": 3429,
      "importantly,": 3430,
      "longer-term": 3431,
      "optical": 3432,
      "ready": 3433,
      "breach": 3434,
      "38": 3435,
      "##.8": 3436,
      "##.4": 3437,
      "at&t": 3438,
      "##sa": 3439,
      "heart": 3440,
      "associates": 3441,
      "pool": 3442,
      "demonstrate": 3443,
      "##ant": 3444,
      "happy": 3445,
      "cfa": 3446,
      "mm": 3447,
      "capability": 3448,
      "convert": 3449,
      "roe": 3450,
      "advisors": 3451,
      "adopt": 3452,
      "definition": 3453,
      "roll": 3454,
      "true": 3455,
      "everything": 3456,
      "prescription": 3457,
      "closure": 3458,
      "signs": 3459,
      "yeah,": 3460,
      "or,": 3461,
      "sale,": 3462,
      "##la": 3463,
      "copy": 3464,
      "shipment": 3465,
      "microsoft": 3466,
      "five-year": 3467,
      "barney": 3468,
      "##.7": 3469,
      "##.6": 3470,
      "##es,": 3471,
      "weight": 3472,
      "##11": 3473,
      "x": 3474,
      "cms": 3475,
      "intent": 3476,
      "unaudited": 3477,
      "exception": 3478,
      "achievement": 3479,
      "simply": 3480,
      "##sh": 3481,
      "sustain": 3482,
      "conclude": 3483,
      "eu": 3484,
      "bid": 3485,
      "39": 3486,
      "here,": 3487,
      "logistics": 3488,
      "outsourcing": 3489,
      "speak": 3490,
      "three-month": 3491,
      "stars": 3492,
      "residual": 3493,
      "experience,": 3494,
      "18,": 3495,
      "outcomes": 3496,
      "distribution,": 3497,
      "concentration": 3498,
      "financial,": 3499,
      "saying": 3500,
      "diagnostic": 3501,
      "authorization": 3502,
      "foot": 3503,
      "1995,": 3504,
      "spreads": 3505,
      "20,": 3506,
      "17,": 3507,
      "subsequently": 3508,
      "initiative": 3509,
      "tables": 3510,
      "level,": 3511,
      "par": 3512,
      "university": 3513,
      "grown": 3514,
      "g&a": 3515,
      "periodically": 3516,
      "impairments": 3517,
      "top-line": 3518,
      "emissions": 3519,
      "auction": 3520,
      "aggressively": 3521,
      "##ie": 3522,
      "analog": 3523,
      "37": 3524,
      "chinese": 3525,
      "warrant": 3526,
      "75%": 3527,
      "announcement": 3528,
      "b.": 3529,
      "ubs": 3530,
      "##id": 3531,
      "base,": 3532,
      "##.9": 3533,
      "left": 3534,
      "encouraged": 3535,
      "absence": 3536,
      "bigger": 3537,
      "transaction,": 3538,
      "suffer": 3539,
      "check": 3540,
      "initiatives,": 3541,
      "##ary": 3542,
      "constitutes": 3543,
      "intangibles": 3544,
      "24,": 3545,
      "municipal": 3546,
      "networking": 3547,
      "converted": 3548,
      "g": 3549,
      "4.4": 3550,
      "documents": 3551,
      "lowest": 3552,
      "expenditure": 3553,
      "##net": 3554,
      "refinancing": 3555,
      "modelware": 3556,
      "analysts'": 3557,
      "terminal": 3558,
      "51": 3559,
      "sprint": 3560,
      "investors,": 3561,
      "risk-adjusted": 3562,
      "3.9": 3563,
      "team's)": 3564,
      "non-performing": 3565,
      "downward": 3566,
      "incentives": 3567,
      "risk-based": 3568,
      "telecom": 3569,
      "raymond": 3570,
      "(e.g.,": 3571,
      "goals": 3572,
      "installation": 3573,
      "consequences": 3574,
      "products;": 3575,
      "competitors,": 3576,
      "accrual": 3577,
      "impair": 3578,
      "fast": 3579,
      "mine": 3580,
      "42": 3581,
      "manufacturing,": 3582,
      "green": 3583,
      "software,": 3584,
      "helps": 3585,
      "functions": 3586,
      "stations": 3587,
      "mix,": 3588,
      "dedicated": 3589,
      "analytical": 3590,
      "opportunities,": 3591,
      "instead": 3592,
      "points,": 3593,
      "permanent": 3594,
      "soon": 3595,
      "earlier,": 3596,
      "year-ago": 3597,
      "corporations": 3598,
      "perceived": 3599,
      "hear": 3600,
      "independent,": 3601,
      "##ro": 3602,
      "##to": 3603,
      "facts": 3604,
      "unexpected": 3605,
      "areas,": 3606,
      "22,": 3607,
      "agee": 3608,
      "amounted": 3609,
      "instruments,": 3610,
      "sometimes": 3611,
      "parties,": 3612,
      "eliminate": 3613,
      "(i.e.,": 3614,
      "pt": 3615,
      "however": 3616,
      "v": 3617,
      "nasdaq": 3618,
      "1994": 3619,
      "names": 3620,
      "strengthening": 3621,
      "4.6": 3622,
      "transferred": 3623,
      "cross": 3624,
      "communications,": 3625,
      "concludes": 3626,
      "visit": 3627,
      "gave": 3628,
      "owner": 3629,
      "harbor": 3630,
      "borrow": 3631,
      "plc": 3632,
      "influenced": 3633,
      "forms": 3634,
      "shipped": 3635,
      "[ph]": 3636,
      "push": 3637,
      "legislative": 3638,
      "54": 3639,
      "[indiscernible]": 3640,
      "joe": 3641,
      "slowing": 3642,
      "fas": 3643,
      "cents": 3644,
      "fit": 3645,
      "##0,": 3646,
      "unanticipated": 3647,
      "applying": 3648,
      "2019,": 3649,
      "elected": 3650,
      "accept": 3651,
      "tim": 3652,
      "wood": 3653,
      "85": 3654,
      "##t,": 3655,
      "currently,": 3656,
      "staffing": 3657,
      "##out": 3658,
      "4.2": 3659,
      "accounts,": 3660,
      "sell,": 3661,
      "chip": 3662,
      "putting": 3663,
      "21,": 3664,
      "frequency": 3665,
      "diverse": 3666,
      "collect": 3667,
      "##ck": 3668,
      "computing": 3669,
      "frequently": 3670,
      "needs,": 3671,
      "moody's": 3672,
      "preparing": 3673,
      "##,\"": 3674,
      "unpaid": 3675,
      "disclose": 3676,
      "##me": 3677,
      "privacy": 3678,
      "steven": 3679,
      "upper": 3680,
      "partnerships": 3681,
      "deposits,": 3682,
      "##2,": 3683,
      "element": 3684,
      "version": 3685,
      "(dollars": 3686,
      "film": 3687,
      "context": 3688,
      "poor": 3689,
      "imaging": 3690,
      "very,": 3691,
      "(iv)": 3692,
      "positively": 3693,
      "sole": 3694,
      "partly": 3695,
      "4.8": 3696,
      "accretion": 3697,
      "beverage": 3698,
      "\"": 3699,
      "57": 3700,
      "dose": 3701,
      "(such": 3702,
      "dilution": 3703,
      "maximize": 3704,
      "borrowed": 3705,
      "unknown": 3706,
      "customary": 3707,
      "criminal": 3708,
      "trading,": 3709,
      "volume,": 3710,
      "selection": 3711,
      "immediate": 3712,
      "unauthorized": 3713,
      "dodd-frank": 3714,
      "43": 3715,
      "deployment": 3716,
      "promotion": 3717,
      "estimating": 3718,
      "indicators": 3719,
      "·.": 3720,
      "competitor": 3721,
      "##ating": 3722,
      "varying": 3723,
      "##o,": 3724,
      "japanese": 3725,
      "##gen": 3726,
      "carried": 3727,
      "swaps": 3728,
      "accident": 3729,
      "evolving": 3730,
      "speed": 3731,
      "charles": 3732,
      "##at": 3733,
      "stability": 3734,
      "out,": 3735,
      "blair": 3736,
      "ferc": 3737,
      "ed": 3738,
      "pharmacy": 3739,
      "##tic": 3740,
      "seem": 3741,
      "sheet,": 3742,
      "dynamics": 3743,
      "non-investment": 3744,
      "assessing": 3745,
      "ones": 3746,
      "6,": 3747,
      "##il": 3748,
      "renew": 3749,
      "rules,": 3750,
      "willing": 3751,
      "beneficial": 3752,
      "##ness": 3753,
      "standards,": 3754,
      "considers": 3755,
      "drove": 3756,
      "msci": 3757,
      "23,": 3758,
      "smart": 3759,
      "accretive": 3760,
      "highlight": 3761,
      "preliminary": 3762,
      "millions,": 3763,
      "worse": 3764,
      "##50": 3765,
      "korea": 3766,
      "350": 3767,
      "conducting": 3768,
      "japan,": 3769,
      "el": 3770,
      "concerned": 3771,
      "gas,": 3772,
      "catastrophe": 3773,
      "assessments": 3774,
      "billing": 3775,
      "inclusion": 3776,
      "suntrust": 3777,
      "23%": 3778,
      "doubtful": 3779,
      "indicator": 3780,
      "workforce": 3781,
      "favorably": 3782,
      "spring": 3783,
      "5.5": 3784,
      "supplement": 3785,
      "commentary": 3786,
      "classification": 3787,
      "##).": 3788,
      "64": 3789,
      "story": 3790,
      "mid-": 3791,
      "mortgage-backed": 3792,
      "laboratory": 3793,
      "interesting": 3794,
      "daniel": 3795,
      "##30": 3796,
      "white": 3797,
      "st.": 3798,
      "placement": 3799,
      "56": 3800,
      "extent,": 3801,
      "revisions": 3802,
      "inc..": 3803,
      "games": 3804,
      "possibly": 3805,
      "whatâ": 3806,
      "cards": 3807,
      "0.03": 3808,
      "rail": 3809,
      "##and": 3810,
      "legal,": 3811,
      "59": 3812,
      "helping": 3813,
      "unusual": 3814,
      "capacity,": 3815,
      "op": 3816,
      "banks,": 3817,
      "tobacco": 3818,
      "agricultural": 3819,
      "extraordinary": 3820,
      "haven't": 3821,
      "##3,": 3822,
      "can't": 3823,
      "reverse": 3824,
      "leveraging": 3825,
      "station": 3826,
      "competition,": 3827,
      "months..": 3828,
      "125": 3829,
      "updates": 3830,
      "decide": 3831,
      "deep": 3832,
      "forecasting": 3833,
      "pm": 3834,
      "shared": 3835,
      "minimize": 3836,
      "##ous": 3837,
      "facilitate": 3838,
      "inconsistent": 3839,
      "causing": 3840,
      "heard": 3841,
      "noncontrolling": 3842,
      "bank's": 3843,
      "verizon": 3844,
      "contracted": 3845,
      "vertical": 3846,
      "median": 3847,
      "surgical": 3848,
      "uncertainties,": 3849,
      "2.": 3850,
      "feature": 3851,
      "##(": 3852,
      "pursuing": 3853,
      "happen": 3854,
      "58": 3855,
      "##cal": 3856,
      "quantities": 3857,
      "tied": 3858,
      "0": 3859,
      "highlighted": 3860,
      "black": 3861,
      "hedges": 3862,
      "players": 3863,
      "concluded": 3864,
      "financing,": 3865,
      "piece": 3866,
      "separation": 3867,
      "19,": 3868,
      "strengthen": 3869,
      "acting": 3870,
      "matthew": 3871,
      "consult": 3872,
      "covers": 3873,
      "territory": 3874,
      "touch": 3875,
      "definitely": 3876,
      "americas": 3877,
      "security,": 3878,
      "continuous": 3879,
      "certificate": 3880,
      "easy": 3881,
      "input": 3882,
      "profitability,": 3883,
      "spectrum": 3884,
      "micro": 3885,
      "##com": 3886,
      "continually": 3887,
      "handling": 3888,
      "##ma": 3889,
      "coast": 3890,
      "10-k,": 3891,
      "cellular": 3892,
      "ratio,": 3893,
      "joseph": 3894,
      "indenture": 3895,
      "six-month": 3896,
      "(c)": 3897,
      "##ir": 3898,
      "commenced": 3899,
      "eric": 3900,
      "##c,": 3901,
      "arrangements,": 3902,
      "##line": 3903,
      "negotiated": 3904,
      "floating": 3905,
      "energy,": 3906,
      "print": 3907,
      "limiting": 3908,
      "ebitda,": 3909,
      "international,": 3910,
      "barrels": 3911,
      "knowledge": 3912,
      "approval,": 3913,
      "4.9": 3914,
      "24%": 3915,
      "debentures": 3916,
      "eps,": 3917,
      "0.05": 3918,
      "winter": 3919,
      "modeling": 3920,
      "##ated": 3921,
      "##ps": 3922,
      "suite": 3923,
      "na": 3924,
      "idea": 3925,
      "inventory,": 3926,
      "s.a.": 3927,
      "4.7": 3928,
      "doesn't": 3929,
      "buyback": 3930,
      "clearing": 3931,
      "lien": 3932,
      "executing": 3933,
      "only,": 3934,
      "depository": 3935,
      "governance": 3936,
      "refining": 3937,
      "generates": 3938,
      "originated": 3939,
      "california,": 3940,
      "co": 3941,
      "q/q": 3942,
      "note:": 3943,
      "reliability": 3944,
      "drill": 3945,
      "broker-dealer": 3946,
      "link": 3947,
      "##ee": 3948,
      "taxation": 3949,
      "sports": 3950,
      "headquarters": 3951,
      "nine-month": 3952,
      "##4,": 3953,
      "shelf": 3954,
      "comparing": 3955,
      "##ol": 3956,
      "convenience": 3957,
      "rolling": 3958,
      "litigation,": 3959,
      "sign": 3960,
      "readers": 3961,
      "hours": 3962,
      "wins": 3963,
      "prohibits": 3964,
      "automobile": 3965,
      "falling": 3966,
      "belief": 3967,
      "800": 3968,
      "climate": 3969,
      "certificates": 3970,
      "stephen": 3971,
      "mexico,": 3972,
      "estimates..": 3973,
      "road": 3974,
      "n.": 3975,
      "41": 3976,
      "62": 3977,
      "agree": 3978,
      "avoid": 3979,
      "extra": 3980,
      "thoughts": 3981,
      "##ner": 3982,
      "dcf": 3983,
      "66": 3984,
      "dry": 3985,
      "postretirement": 3986,
      "##pro": 3987,
      "5.1": 3988,
      "fire": 3989,
      "stages": 3990,
      "scenario": 3991,
      "setting": 3992,
      "biotechnology": 3993,
      "##*": 3994,
      "phone": 3995,
      "capitalize": 3996,
      "deliveries": 3997,
      "5.2": 3998,
      "ii,": 3999,
      "lines,": 4000,
      "stop": 4001,
      "efforts,": 4002,
      "unlikely": 4003,
      "minimal": 4004,
      "pharma": 4005,
      "collaborative": 4006,
      "68": 4007,
      "renewed": 4008,
      "(operator": 4009,
      "5.3": 4010,
      "works": 4011,
      "ton": 4012,
      "collected": 4013,
      "laboratories": 4014,
      "figures": 4015,
      "aftermarket": 4016,
      "tracking": 4017,
      "producers": 4018,
      "proportion": 4019,
      "surface": 4020,
      "magnitude": 4021,
      "(usa)": 4022,
      "ourselves": 4023,
      "george": 4024,
      "lawsuits": 4025,
      "67": 4026,
      "range,": 4027,
      "length": 4028,
      "equity,": 4029,
      "integrating": 4030,
      "area,": 4031,
      "lender": 4032,
      "vessels": 4033,
      "engagement": 4034,
      "controlling": 4035,
      "##ff": 4036,
      "receives": 4037,
      "hiring": 4038,
      "host": 4039,
      "otherwise,": 4040,
      "bureau": 4041,
      "prohibit": 4042,
      "issuing": 4043,
      "opinion,": 4044,
      "partial": 4045,
      "##do": 4046,
      "tool": 4047,
      "blue": 4048,
      "hereby": 4049,
      "disclosures,": 4050,
      "gary": 4051,
      "actuarial": 4052,
      "counterparties": 4053,
      "providers,": 4054,
      "reserves,": 4055,
      "alliance": 4056,
      "custom": 4057,
      "##ling": 4058,
      "gets": 4059,
      "suisse's": 4060,
      "direction": 4061,
      "patterns": 4062,
      "looked": 4063,
      "readily": 4064,
      "river": 4065,
      "e-commerce": 4066,
      "##way": 4067,
      "decided": 4068,
      "advised": 4069,
      "footprint": 4070,
      "use,": 4071,
      "zealand": 4072,
      "creation": 4073,
      "strong,": 4074,
      "##bn": 4075,
      "portions": 4076,
      "cisco": 4077,
      "emphasis": 4078,
      "##5,": 4079,
      "worked": 4080,
      "##--": 4081,
      "transport": 4082,
      "matt": 4083,
      "obligated": 4084,
      "##pa": 4085,
      "renewable": 4086,
      "reversal": 4087,
      "boost": 4088,
      "rating,": 4089,
      "characterized": 4090,
      "break": 4091,
      "overweight,": 4092,
      "reminder,": 4093,
      "ex": 4094,
      "cutting": 4095,
      "dynamic": 4096,
      "enhancements": 4097,
      "load": 4098,
      "##land": 4099,
      "dr.": 4100,
      "strategies,": 4101,
      "experiencing": 4102,
      "are,": 4103,
      "compelling": 4104,
      "ltd,": 4105,
      "repayments": 4106,
      "corp": 4107,
      "state,": 4108,
      "sections": 4109,
      "ken": 4110,
      "##9,": 4111,
      "manufactures": 4112,
      "skilled": 4113,
      "millions": 4114,
      "mail": 4115,
      "expires": 4116,
      "upcoming": 4117,
      "hand,": 4118,
      "refers": 4119,
      "macroeconomic": 4120,
      "##nd": 4121,
      "sourced": 4122,
      "publishing": 4123,
      "increases,": 4124,
      "incorporate": 4125,
      "volumes,": 4126,
      "advantages": 4127,
      "separately": 4128,
      "dividends,": 4129,
      "repaid": 4130,
      "proven": 4131,
      "remarks": 4132,
      "rich": 4133,
      "rank": 4134,
      "you'll": 4135,
      "##day": 4136,
      "##on,": 4137,
      "recoveries": 4138,
      "##the": 4139,
      "facing": 4140,
      "divestiture": 4141,
      "basel": 4142,
      "45%": 4143,
      "recommend": 4144,
      "apple": 4145,
      "park": 4146,
      "republic": 4147,
      "relief": 4148,
      "miles": 4149,
      "gentlemen,": 4150,
      "##ley": 4151,
      "opposed": 4152,
      "favor": 4153,
      "p": 4154,
      "trials,": 4155,
      "prior-year": 4156,
      "australia,": 4157,
      "surplus": 4158,
      "##l,": 4159,
      "##ard": 4160,
      "turnaround": 4161,
      "liable": 4162,
      "700": 4163,
      "##8,": 4164,
      "windows": 4165,
      "casino": 4166,
      "washington": 4167,
      "##he": 4168,
      "interest-earning": 4169,
      "fashion": 4170,
      "structural": 4171,
      "derive": 4172,
      "distinct": 4173,
      "offering,": 4174,
      "fresh": 4175,
      "(price": 4176,
      "la": 4177,
      "presently": 4178,
      "buyers": 4179,
      "package": 4180,
      "exceeding": 4181,
      "63": 4182,
      "greg": 4183,
      "addresses": 4184,
      "usa": 4185,
      "correct": 4186,
      "acres": 4187,
      "inherently": 4188,
      "accelerating": 4189,
      "entirely": 4190,
      "produces": 4191,
      "way,": 4192,
      "1.": 4193,
      "##ha": 4194,
      "flexible": 4195,
      "horizon": 4196,
      "alternatives": 4197,
      "ib": 4198,
      "everybody": 4199,
      "nda": 4200,
      "bb&t": 4201,
      "vote": 4202,
      "loss,": 4203,
      "nr": 4204,
      "path": 4205,
      "material,": 4206,
      "serious": 4207,
      "ideas": 4208,
      "jp": 4209,
      "issues,": 4210,
      "metric": 4211,
      "hp": 4212,
      "extinguishment": 4213,
      "(for": 4214,
      "jason": 4215,
      "5.4": 4216,
      "mw": 4217,
      "assign": 4218,
      "##ning": 4219,
      "huge": 4220,
      "begun": 4221,
      "congress": 4222,
      "sold,": 4223,
      "5.6": 4224,
      "collaborators": 4225,
      "available-for-sale": 4226,
      "devices,": 4227,
      "easier": 4228,
      "sophisticated": 4229,
      "considerable": 4230,
      "ben": 4231,
      "keeping": 4232,
      "reorganization": 4233,
      "million),": 4234,
      "pcs": 4235,
      "exposures": 4236,
      "else": 4237,
      "##7,": 4238,
      "super": 4239,
      "malaysia": 4240,
      "living": 4241,
      "##ian": 4242,
      "brands,": 4243,
      "arm": 4244,
      "upfront": 4245,
      "settled": 4246,
      "appropriate,": 4247,
      "##er,": 4248,
      "[": 4249,
      "6.5": 4250,
      "awarded": 4251,
      "properly": 4252,
      "elimination": 4253,
      "(us": 4254,
      "panel": 4255,
      "shale": 4256,
      "26%": 4257,
      "cycles": 4258,
      "bonus": 4259,
      "realization": 4260,
      "memory": 4261,
      "three-year": 4262,
      "functional": 4263,
      "economies": 4264,
      "##ver": 4265,
      "star": 4266,
      "##ide": 4267,
      "91": 4268,
      "exchanges": 4269,
      "concentrated": 4270,
      "surrounding": 4271,
      "27%": 4272,
      "modification": 4273,
      "gone": 4274,
      "cuts": 4275,
      "ends": 4276,
      "retaining": 4277,
      "tissue": 4278,
      "spending,": 4279,
      "warner": 4280,
      "–": 4281,
      "remember": 4282,
      "130": 4283,
      "shareholders'": 4284,
      "branches": 4285,
      "bar": 4286,
      "promote": 4287,
      "collateralized": 4288,
      "(vs.": 4289,
      "zero": 4290,
      "proceed": 4291,
      "illinois": 4292,
      "dominion": 4293,
      "revise": 4294,
      "hd": 4295,
      "prevailing": 4296,
      "match": 4297,
      "normally": 4298,
      "trailing": 4299,
      "inputs": 4300,
      "tender": 4301,
      "61": 4302,
      "contractors": 4303,
      "industries,": 4304,
      "ny": 4305,
      "movement": 4306,
      "financed": 4307,
      "severity": 4308,
      "election": 4309,
      "cc": 4310,
      "joined": 4311,
      "pet": 4312,
      "platform,": 4313,
      "finding": 4314,
      "7.5": 4315,
      "collections": 4316,
      "##20": 4317,
      "release,": 4318,
      "desktop": 4319,
      "database": 4320,
      "sub": 4321,
      "releases": 4322,
      "month,": 4323,
      "settlements": 4324,
      "hi": 4325,
      "ibm": 4326,
      "regards": 4327,
      "##rt": 4328,
      "110": 4329,
      "proxy": 4330,
      "thesis": 4331,
      "corporation's": 4332,
      "optimize": 4333,
      "suppliers,": 4334,
      "interruption": 4335,
      "sounds": 4336,
      "occur,": 4337,
      "1a": 4338,
      "accruals": 4339,
      "offerings,": 4340,
      "assistance": 4341,
      "indebtedness,": 4342,
      "enforce": 4343,
      "##am": 4344,
      "##ay": 4345,
      "ore": 4346,
      "impressive": 4347,
      "asked": 4348,
      "##va": 4349,
      "procurement": 4350,
      "dc": 4351,
      "noi": 4352,
      "5.8": 4353,
      "jobs": 4354,
      "asbestos": 4355,
      "i've": 4356,
      "liability,": 4357,
      "customer,": 4358,
      "forced": 4359,
      "removed": 4360,
      "occurring": 4361,
      "liquidation": 4362,
      "lots": 4363,
      "vs": 4364,
      "##ad": 4365,
      "but,": 4366,
      "86": 4367,
      "consultants": 4368,
      "capable": 4369,
      "6.0": 4370,
      "oracle": 4371,
      "students": 4372,
      "depreciation,": 4373,
      "agencies,": 4374,
      "topic": 4375,
      "amount,": 4376,
      "##ure": 4377,
      "payout": 4378,
      "gene": 4379,
      "28%": 4380,
      "laser": 4381,
      "certifies": 4382,
      "maturing": 4383,
      "gaining": 4384,
      "exist": 4385,
      "##ld": 4386,
      "hot": 4387,
      "debit": 4388,
      "5.7": 4389,
      "martin": 4390,
      "##ms": 4391,
      "modify": 4392,
      "averaged": 4393,
      "import": 4394,
      "stress": 4395,
      "variations": 4396,
      "gathering": 4397,
      "reinvestment": 4398,
      "tax,": 4399,
      "statistical": 4400,
      "insurers": 4401,
      "motion": 4402,
      "structure,": 4403,
      "lastly,": 4404,
      "formal": 4405,
      "##\",": 4406,
      "##ze": 4407,
      "functionality": 4408,
      "authorised": 4409,
      "foods": 4410,
      "older": 4411,
      "contingencies": 4412,
      "##ding": 4413,
      "0.04": 4414,
      "sea": 4415,
      "cfo": 4416,
      "disciplined": 4417,
      "fis": 4418,
      "encourage": 4419,
      "supports": 4420,
      "##i,": 4421,
      "records": 4422,
      "widely": 4423,
      "explanation": 4424,
      "iron": 4425,
      "network,": 4426,
      "ohio": 4427,
      "cease": 4428,
      "grants": 4429,
      "techniques": 4430,
      "hold,": 4431,
      "actions,": 4432,
      "comparative": 4433,
      "##ys": 4434,
      "##6,": 4435,
      "note,": 4436,
      "72": 4437,
      "quoted": 4438,
      "digits": 4439,
      "automation": 4440,
      "indemnification": 4441,
      "representations": 4442,
      "compound": 4443,
      "violations": 4444,
      "assessed": 4445,
      "##rd": 4446,
      "reasons,": 4447,
      "whereby": 4448,
      "chairman,": 4449,
      "expose": 4450,
      "demands": 4451,
      "tremendous": 4452,
      "virtually": 4453,
      "she": 4454,
      "jeffrey": 4455,
      "animal": 4456,
      "h.": 4457,
      "##za": 4458,
      "##ber": 4459,
      "define": 4460,
      "headquartered": 4461,
      "maker": 4462,
      "##bps": 4463,
      "king": 4464,
      "##mer": 4465,
      "1,000": 4466,
      "bloomberg": 4467,
      "(with": 4468,
      "jack": 4469,
      "##fa": 4470,
      "wireline": 4471,
      "buckingham": 4472,
      "modifications": 4473,
      "universal": 4474,
      "##back": 4475,
      "##ed,": 4476,
      "listing": 4477,
      "curve": 4478,
      "branch,": 4479,
      "vision": 4480,
      "meaningfully": 4481,
      "bell": 4482,
      "mind": 4483,
      "79": 4484,
      "180": 4485,
      "82": 4486,
      "finally": 4487,
      "economy,": 4488,
      "wafer": 4489,
      "associates,": 4490,
      "county": 4491,
      "commodities": 4492,
      "advertising,": 4493,
      "craig": 4494,
      "commerce": 4495,
      "returned": 4496,
      "bases": 4497,
      "sources,": 4498,
      "methodologies": 4499,
      "irs": 4500,
      "replaced": 4501,
      "end,": 4502,
      "diesel": 4503,
      "representatives": 4504,
      "•the": 4505,
      "##ized": 4506,
      "dealing": 4507,
      "##ors": 4508,
      "intense": 4509,
      "ranges": 4510,
      "contract,": 4511,
      "fifth": 4512,
      "submit": 4513,
      "down,": 4514,
      "fill": 4515,
      "institutions,": 4516,
      "upgrades": 4517,
      "volatility,": 4518,
      "communicated": 4519,
      "headwinds": 4520,
      "dissemination": 4521,
      "aluminum": 4522,
      "proposals": 4523,
      "completely": 4524,
      "##si": 4525,
      "recovered": 4526,
      "basin": 4527,
      "confidential": 4528,
      "ca": 4529,
      "outlined": 4530,
      "securing": 4531,
      "identifying": 4532,
      "turnover": 4533,
      "economic,": 4534,
      "33%": 4535,
      "virginia": 4536,
      "amortization,": 4537,
      "leads": 4538,
      "patents,": 4539,
      "choice": 4540,
      "formula": 4541,
      "school": 4542,
      "voluntary": 4543,
      "covenant": 4544,
      "correspond": 4545,
      "##ns": 4546,
      "references": 4547,
      "deploy": 4548,
      "sachs": 4549,
      "completing": 4550,
      "analyze": 4551,
      "bridge": 4552,
      "switching": 4553,
      "ms": 4554,
      "heading": 4555,
      "##ier": 4556,
      "high-end": 4557,
      "executives": 4558,
      "decision..": 4559,
      "province": 4560,
      "reviewing": 4561,
      "governments": 4562,
      "reduces": 4563,
      "occurs": 4564,
      "10.0": 4565,
      "write-off": 4566,
      "##op": 4567,
      "dave": 4568,
      "signal": 4569,
      "practices,": 4570,
      "leveraged": 4571,
      "eliminated": 4572,
      "errors": 4573,
      "nonaccrual": 4574,
      "##point": 4575,
      "reaching": 4576,
      "workers": 4577,
      "construction,": 4578,
      "tech": 4579,
      "foundation": 4580,
      "dell": 4581,
      "describes": 4582,
      "drag": 4583,
      "exchange,": 4584,
      "contrary": 4585,
      "calling": 4586,
      "disrupt": 4587,
      "currency,": 4588,
      "emea": 4589,
      "complexity": 4590,
      "controls,": 4591,
      "##ti": 4592,
      "defend": 4593,
      "complementary": 4594,
      "equally": 4595,
      "asia,": 4596,
      "motor": 4597,
      "google": 4598,
      "##ization": 4599,
      "wachovia": 4600,
      "##ue": 4601,
      "##cs": 4602,
      "6.3": 4603,
      "ic": 4604,
      "catalyst": 4605,
      "conventional": 4606,
      "sourcing": 4607,
      "approve": 4608,
      "starts": 4609,
      "networks,": 4610,
      "movements": 4611,
      "l": 4612,
      "classes": 4613,
      "leases,": 4614,
      "collective": 4615,
      "array": 4616,
      "policy,": 4617,
      "drives": 4618,
      "y": 4619,
      "6.1": 4620,
      "71": 4621,
      "faces": 4622,
      "(from": 4623,
      "mg": 4624,
      "focuses": 4625,
      "rents": 4626,
      "lag": 4627,
      "0%": 4628,
      "body": 4629,
      "6.2": 4630,
      "unused": 4631,
      "metals": 4632,
      "fines": 4633,
      "appeal": 4634,
      "engineered": 4635,
      "curious": 4636,
      "alex": 4637,
      "69": 4638,
      "glass": 4639,
      "men": 4640,
      "qualifying": 4641,
      "?": 4642,
      "usd": 4643,
      "##der": 4644,
      "hedged": 4645,
      "f": 4646,
      "issue,": 4647,
      "merger,": 4648,
      "##red": 4649,
      "discrete": 4650,
      "insight": 4651,
      "world,": 4652,
      "ec": 4653,
      "interactive": 4654,
      "vesting": 4655,
      "carbon": 4656,
      "thousands):": 4657,
      "we,": 4658,
      "counterparty": 4659,
      "barclays": 4660,
      "war": 4661,
      "satisfaction": 4662,
      "redeem": 4663,
      "140": 4664,
      "simple": 4665,
      "buildings": 4666,
      "oversight": 4667,
      "viewed": 4668,
      "lt": 4669,
      "management’s": 4670,
      "patrick": 4671,
      "violation": 4672,
      "enabling": 4673,
      "christopher": 4674,
      "transformation": 4675,
      "mill": 4676,
      "caution": 4677,
      "historic": 4678,
      "email": 4679,
      "informational": 4680,
      "strongest": 4681,
      "launches": 4682,
      "van": 4683,
      "happening": 4684,
      "repeat": 4685,
      "buyer": 4686,
      "clearance": 4687,
      "t.": 4688,
      "95": 4689,
      "##ance": 4690,
      "identifiable": 4691,
      "project,": 4692,
      "milestones": 4693,
      "vessel": 4694,
      "similarly": 4695,
      "happened": 4696,
      "##are": 4697,
      "learning": 4698,
      "appropriately": 4699,
      "acute": 4700,
      "intercompany": 4701,
      "outlook,": 4702,
      "firm,": 4703,
      "universe,": 4704,
      "arpu": 4705,
      "amended,": 4706,
      "accounting,": 4707,
      "supervisory": 4708,
      "160": 4709,
      "chance": 4710,
      "shorter": 4711,
      "subjective": 4712,
      "loan,": 4713,
      "ipo": 4714,
      "economics": 4715,
      "10-q,": 4716,
      "midpoint": 4717,
      "(we": 4718,
      "suspension": 4719,
      "##ca": 4720,
      "writing": 4721,
      "restrictive": 4722,
      "cd": 4723,
      "unrecognized": 4724,
      "ahead,": 4725,
      "las": 4726,
      "rebound": 4727,
      "dated": 4728,
      "u": 4729,
      "measures,": 4730,
      "##use": 4731,
      "shortfall": 4732,
      "assembly": 4733,
      "dilutive": 4734,
      "##ler": 4735,
      "76": 4736,
      "decreasing": 4737,
      "0.10": 4738,
      "mar": 4739,
      "before,": 4740,
      "globally": 4741,
      "survey": 4742,
      "recording": 4743,
      "pennsylvania": 4744,
      "eventually": 4745,
      "handle": 4746,
      "mixed": 4747,
      "projection": 4748,
      "##ba": 4749,
      "value-added": 4750,
      "negotiations": 4751,
      "desire": 4752,
      "5.9": 4753,
      "switch": 4754,
      "hurricane": 4755,
      "target,": 4756,
      "sound": 4757,
      "traction": 4758,
      "automated": 4759,
      "competes": 4760,
      "hire": 4761,
      "lee": 4762,
      "tight": 4763,
      "tested": 4764,
      "turns": 4765,
      "audio": 4766,
      "es": 4767,
      "enterprises": 4768,
      "corn": 4769,
      "##less": 4770,
      "positioning": 4771,
      "retailer": 4772,
      "##ls": 4773,
      "bought": 4774,
      "terrorist": 4775,
      "house": 4776,
      "tailored": 4777,
      "centers,": 4778,
      "##cy": 4779,
      "boeing": 4780,
      "simultaneously": 4781,
      "fraud": 4782,
      "##no": 4783,
      "##tar": 4784,
      "pain": 4785,
      "outflows": 4786,
      "decline,": 4787,
      "non-operating": 4788,
      "89": 4789,
      "times,": 4790,
      "initiate": 4791,
      "stream": 4792,
      "transfers": 4793,
      "watch": 4794,
      "sectors": 4795,
      "british": 4796,
      "enhancing": 4797,
      "statutes": 4798,
      "residents": 4799,
      "balanced": 4800,
      "upward": 4801,
      "place,": 4802,
      "frankfurt": 4803,
      "exists": 4804,
      "consolidate": 4805,
      "##)..": 4806,
      "saudi": 4807,
      "bancorp": 4808,
      "divert": 4809,
      "hurt": 4810,
      "printed": 4811,
      "containing": 4812,
      "ir": 4813,
      "doubt": 4814,
      "negotiate": 4815,
      "##-2": 4816,
      "aum": 4817,
      "moves": 4818,
      "machine": 4819,
      "al": 4820,
      "forest": 4821,
      "cells": 4822,
      "percentages": 4823,
      "producer": 4824,
      "insufficient": 4825,
      "ratings,": 4826,
      "satisfied": 4827,
      "questions,": 4828,
      "frank": 4829,
      "africa": 4830,
      "yearâ": 4831,
      "oil,": 4832,
      "##/a": 4833,
      "examination": 4834,
      "##-in": 4835,
      "1994,": 4836,
      "infrastructure,": 4837,
      "##fe": 4838,
      "creates": 4839,
      "emc": 4840,
      "10-k.": 4841,
      "prudent": 4842,
      "##om": 4843,
      "establishes": 4844,
      "foregoing": 4845,
      "asian": 4846,
      "stringent": 4847,
      "en": 4848,
      "hearing": 4849,
      "pe": 4850,
      "music": 4851,
      "receivable,": 4852,
      "handset": 4853,
      "distance": 4854,
      "valley": 4855,
      "wage": 4856,
      "##ur": 4857,
      "expensed": 4858,
      "merchandising": 4859,
      "probability": 4860,
      "division,": 4861,
      "pound": 4862,
      "nasd": 4863,
      "32%": 4864,
      "associate": 4865,
      "disney": 4866,
      "##ds": 4867,
      "settle": 4868,
      "jv": 4869,
      "draw": 4870,
      "visa": 4871,
      "robinson": 4872,
      "equivalents,": 4873,
      "salary": 4874,
      "fluid": 4875,
      "advisers": 4876,
      "injury": 4877,
      "puerto": 4878,
      "##ally": 4879,
      "dramatically": 4880,
      "cost-effective": 4881,
      "fine": 4882,
      "places": 4883,
      "edge": 4884,
      "rmb": 4885,
      "customers'": 4886,
      "similarly,": 4887,
      "ps": 4888,
      "differing": 4889,
      "brief": 4890,
      "leave": 4891,
      "34%": 4892,
      "space,": 4893,
      "completeness": 4894,
      "boe": 4895,
      "latter": 4896,
      "pnc": 4897,
      "78": 4898,
      "6.6": 4899,
      "issuances": 4900,
      "processes,": 4901,
      "6.4": 4902,
      "divisions": 4903,
      "(net": 4904,
      "eagle": 4905,
      "8.5": 4906,
      "combinations": 4907,
      "hybrid": 4908,
      "silicon": 4909,
      "nu": 4910,
      "score": 4911,
      "churn": 4912,
      "stent": 4913,
      "g.": 4914,
      "mandatory": 4915,
      "##‑": 4916,
      "52-week": 4917,
      "manufacturers,": 4918,
      "intention": 4919,
      "affordable": 4920,
      "29%": 4921,
      "guaranty": 4922,
      "summarized": 4923,
      "components,": 4924,
      "asp": 4925,
      "entities,": 4926,
      "author": 4927,
      "genuity": 4928,
      "inside": 4929,
      "chronic": 4930,
      "employ": 4931,
      "expansion,": 4932,
      "factorsâ": 4933,
      "determines": 4934,
      "fsa": 4935,
      "letâ": 4936,
      "headwind": 4937,
      "segments:": 4938,
      "”": 4939,
      "shareholders,": 4940,
      "flash": 4941,
      "outdoor": 4942,
      "pa": 4943,
      "(%)": 4944,
      "non-core": 4945,
      "false": 4946,
      "merck": 4947,
      "##gh": 4948,
      "##ell": 4949,
      "don": 4950,
      "science": 4951,
      "low-": 4952,
      "74": 4953,
      "investigations": 4954,
      "ma": 4955,
      "awareness": 4956,
      "removal": 4957,
      "##lo": 4958,
      "diversification": 4959,
      "walk": 4960,
      "cat": 4961,
      "oems": 4962,
      "jersey": 4963,
      "65%": 4964,
      "output": 4965,
      "calculating": 4966,
      "breakdown": 4967,
      "failures": 4968,
      "other-than-temporary": 4969,
      "rob": 4970,
      "gained": 4971,
      "##ice": 4972,
      "fitch": 4973,
      "club": 4974,
      "compression": 4975,
      "stocks,": 4976,
      "borrowings,": 4977,
      "##ft": 4978,
      "submission": 4979,
      "6.8": 4980,
      "900": 4981,
      "organized": 4982,
      "##per": 4983,
      "importance": 4984,
      "exciting": 4985,
      "didnâ": 4986,
      "vast": 4987,
      "do,": 4988,
      "##cc": 4989,
      "concept": 4990,
      "77": 4991,
      "73": 4992,
      "e&p": 4993,
      "##care": 4994,
      "threshold": 4995,
      "payors": 4996,
      "amd": 4997,
      "##ko": 4998,
      "mexican": 4999,
      "proper": 5000,
      "cancellation": 5001,
      "##bs": 5002,
      "world's": 5003,
      "plays": 5004,
      "del": 5005,
      "somewhere": 5006,
      "felt": 5007,
      "##io": 5008,
      "essential": 5009,
      "image": 5010,
      "sequentially,": 5011,
      "mil": 5012,
      "##/share": 5013,
      "failed": 5014,
      "##15": 5015,
      "jpmsal": 5016,
      "88": 5017,
      "93": 5018,
      "sciences": 5019,
      "##(s)": 5020,
      "thomson": 5021,
      "\"wholesale": 5022,
      "6.7": 5023,
      "accessories": 5024,
      "##01": 5025,
      "meetings": 5026,
      "inflows": 5027,
      "finance,": 5028,
      "lift": 5029,
      "incorporation": 5030,
      "websites": 5031,
      "bay": 5032,
      "thereof": 5033,
      "surprised": 5034,
      "recommendations,": 5035,
      ";": 5036,
      "(n": 5037,
      "prudential": 5038,
      "content,": 5039,
      "we'd": 5040,
      "pattern": 5041,
      "argus": 5042,
      "lng": 5043,
      "exemption": 5044,
      "##ni": 5045,
      "100,000": 5046,
      "##ak": 5047,
      "sharp": 5048,
      "adviser": 5049,
      "strongly": 5050,
      "mention": 5051,
      "finra": 5052,
      "won't": 5053,
      "rollout": 5054,
      "quarter's": 5055,
      "georgia": 5056,
      "dental": 5057,
      "(down": 5058,
      "87": 5059,
      "acreage": 5060,
      "##ip": 5061,
      "wyeth": 5062,
      "valuable": 5063,
      "##im": 5064,
      "(5)": 5065,
      "stand": 5066,
      "addressing": 5067,
      "connected": 5068,
      "orders,": 5069,
      "##b,": 5070,
      "start-up": 5071,
      "##tor": 5072,
      "compounds": 5073,
      "wouldn't": 5074,
      "develop,": 5075,
      "columbia": 5076,
      "refund": 5077,
      "peg": 5078,
      "premier": 5079,
      "matters,": 5080,
      "discretion": 5081,
      "analytics": 5082,
      "450": 5083,
      "broadly": 5084,
      "nm": 5085,
      "n.a.,": 5086,
      "frame": 5087,
      "31%": 5088,
      "ce": 5089,
      "man": 5090,
      "recession": 5091,
      "warranties": 5092,
      "jpmsi": 5093,
      "announcements": 5094,
      "predominantly": 5095,
      "affiliate(s)": 5096,
      "withdrawal": 5097,
      "share)": 5098,
      "42%": 5099,
      "analyses": 5100,
      "96": 5101,
      "rock": 5102,
      "##-1": 5103,
      "insurer": 5104,
      "83": 5105,
      "unemployment": 5106,
      "inspection": 5107,
      "##ki": 5108,
      "overseas": 5109,
      "rick": 5110,
      "penalties,": 5111,
      "requested": 5112,
      "situations": 5113,
      "eur": 5114,
      "id": 5115,
      "variability": 5116,
      "indonesia": 5117,
      "varies": 5118,
      "customersâ": 5119,
      "picture": 5120,
      "straight-line": 5121,
      "aig": 5122,
      "sarbanes-oxley": 5123,
      "respectively": 5124,
      "licensees": 5125,
      "doug": 5126,
      "high-quality": 5127,
      "yield)": 5128,
      "enabled": 5129,
      "7.0": 5130,
      "55%": 5131,
      "encounter": 5132,
      "allocate": 5133,
      "shifting": 5134,
      "acted": 5135,
      "wait": 5136,
      "texas,": 5137,
      "recently,": 5138,
      "efficiently": 5139,
      "84": 5140,
      "about,": 5141,
      "feed": 5142,
      "care,": 5143,
      "downgrade": 5144,
      "fails": 5145,
      "barrel": 5146,
      "interpretations": 5147,
      "ev/ebitda": 5148,
      "mechanism": 5149,
      "sector,": 5150,
      "region,": 5151,
      "days,": 5152,
      "stake": 5153,
      "##”),": 5154,
      "complement": 5155,
      "ups": 5156,
      "aid": 5157,
      "##our": 5158,
      "impact,": 5159,
      "support,": 5160,
      "feedback": 5161,
      "beneficiary": 5162,
      "jonathan": 5163,
      "##ya": 5164,
      "business;": 5165,
      "hey,": 5166,
      "weakening": 5167,
      "player": 5168,
      "silver": 5169,
      "variance": 5170,
      "participant": 5171,
      "printing": 5172,
      "ethanol": 5173,
      "##ri": 5174,
      "##ut": 5175,
      "operations;": 5176,
      "##g,": 5177,
      "diagnostics": 5178,
      "services;": 5179,
      "liquids": 5180,
      "1993": 5181,
      "memorandum": 5182,
      "non-accrual": 5183,
      "novel": 5184,
      "patients,": 5185,
      "revolver": 5186,
      "electronically": 5187,
      "obsolete": 5188,
      "##ly,": 5189,
      "airline": 5190,
      "resolve": 5191,
      "99": 5192,
      "missed": 5193,
      "factory": 5194,
      "risks:": 5195,
      "returns,": 5196,
      "##ac": 5197,
      "encouraging": 5198,
      "iphone": 5199,
      "counsel": 5200,
      "france": 5201,
      "enhancement": 5202,
      "remarks,": 5203,
      "utilizes": 5204,
      "originations": 5205,
      "board,": 5206,
      "seasonally": 5207,
      "midstream": 5208,
      "will,": 5209,
      "kingdom,": 5210,
      "defer": 5211,
      "requests": 5212,
      "engines": 5213,
      "##ite": 5214,
      "##p,": 5215,
      "2.5%": 5216,
      "unforeseen": 5217,
      "statistics": 5218,
      "as,": 5219,
      "educational": 5220,
      "##6.": 5221,
      "##ka": 5222,
      "aviation": 5223,
      "q4,": 5224,
      "team,": 5225,
      "article": 5226,
      "##-to-": 5227,
      "jay": 5228,
      "##ers,": 5229,
      "pharmaceuticals,": 5230,
      "capabilities,": 5231,
      "supervision": 5232,
      "##ny": 5233,
      "processed": 5234,
      "street,": 5235,
      "81": 5236,
      "reclassified": 5237,
      "##ga": 5238,
      "exempt": 5239,
      "quantify": 5240,
      "##be": 5241,
      "newer": 5242,
      "ryan": 5243,
      "(p": 5244,
      "cyber": 5245,
      "dow": 5246,
      "sg": 5247,
      "narrow": 5248,
      "wishing": 5249,
      "##ec": 5250,
      "dropped": 5251,
      "collectively": 5252,
      "opex": 5253,
      "redistributed": 5254,
      "employer": 5255,
      "cagr": 5256,
      "affects": 5257,
      "divestitures": 5258,
      "deepwater": 5259,
      "declare": 5260,
      "migration": 5261,
      "aa": 5262,
      "7.1": 5263,
      "website,": 5264,
      "junior": 5265,
      "ease": 5266,
      "92": 5267,
      "36%": 5268,
      "38%": 5269,
      "inception": 5270,
      "paragraph": 5271,
      "applies": 5272,
      "drilled": 5273,
      "optimization": 5274,
      "believe,": 5275,
      "farm": 5276,
      "exclusivity": 5277,
      "organizational": 5278,
      "pfizer": 5279,
      "mae": 5280,
      "identification": 5281,
      "lists": 5282,
      "wal-mart": 5283,
      "pull": 5284,
      "counter": 5285,
      "estate,": 5286,
      "##quarter": 5287,
      "bone": 5288,
      "k": 5289,
      "lab": 5290,
      "shifts": 5291,
      "manner,": 5292,
      "been,": 5293,
      "prepare": 5294,
      "##her": 5295,
      "net,": 5296,
      "##field": 5297,
      "alone": 5298,
      "port": 5299,
      "coverage,": 5300,
      "domain": 5301,
      "dispositions": 5302,
      "catalysts": 5303,
      "atm": 5304,
      "easily": 5305,
      "structures": 5306,
      "write-down": 5307,
      "98": 5308,
      "www.": 5309,
      "mark-to-market": 5310,
      "whereas": 5311,
      "other,": 5312,
      "checks": 5313,
      "testing,": 5314,
      "not-rated": 5315,
      "##ase": 5316,
      "mission": 5317,
      "##wa": 5318,
      "##):": 5319,
      "multi-year": 5320,
      "transmitted": 5321,
      "lifo": 5322,
      "##go": 5323,
      "arrive": 5324,
      "disputes": 5325,
      "cautionary": 5326,
      "safety,": 5327,
      "limitation": 5328,
      "oncology": 5329,
      "##off": 5330,
      "absorb": 5331,
      "f.": 5332,
      "carryforwards": 5333,
      "ancillary": 5334,
      "sheets": 5335,
      "storage,": 5336,
      "8.0": 5337,
      "ko": 5338,
      "covenants,": 5339,
      "delta": 5340,
      "stockholders'": 5341,
      "85%": 5342,
      "sales)": 5343,
      "(expense)": 5344,
      "7.3": 5345,
      "(d": 5346,
      "center,": 5347,
      "million;": 5348,
      "breadth": 5349,
      "edward": 5350,
      "valuation,": 5351,
      "gains,": 5352,
      "coffee": 5353,
      "leaving": 5354,
      "deem": 5355,
      "designs": 5356,
      "w": 5357,
      "beneficially": 5358,
      "categories,": 5359,
      "one-": 5360,
      "announce": 5361,
      "6.9": 5362,
      "speculative": 5363,
      "automatically": 5364,
      "privately": 5365,
      "unregistered": 5366,
      "elevated": 5367,
      "weekly": 5368,
      "alleged": 5369,
      "##zing": 5370,
      "provided,": 5371,
      "delinquency": 5372,
      "brazil,": 5373,
      "conform": 5374,
      "stearns": 5375,
      "pulp": 5376,
      "variables": 5377,
      "merits": 5378,
      "##king": 5379,
      "perception": 5380,
      "keybanc": 5381,
      "59.": 5382,
      "nc": 5383,
      "j": 5384,
      "##tt": 5385,
      "##ib": 5386,
      "revpar": 5387,
      "lake": 5388,
      "94": 5389,
      "vp": 5390,
      "reiterated": 5391,
      "##09": 5392,
      "processing,": 5393,
      "gasoline": 5394,
      "receipts": 5395,
      "(new": 5396,
      "rf": 5397,
      "clients\"": 5398,
      "##99": 5399,
      "whatever": 5400,
      "61.": 5401,
      "##7.": 5402,
      "##ial": 5403,
      "definitive": 5404,
      "sterne,": 5405,
      "comcast": 5406,
      "discover": 5407,
      "bargaining": 5408,
      "protein": 5409,
      "vaccine": 5410,
      "assurances": 5411,
      "complying": 5412,
      "sam": 5413,
      "constraints": 5414,
      "##k,": 5415,
      "nav": 5416,
      "relationships,": 5417,
      "conclusion": 5418,
      "distributes": 5419,
      "##40": 5420,
      "interruptions": 5421,
      "year-over-year,": 5422,
      "manages": 5423,
      "disseminated": 5424,
      "regulation,": 5425,
      "?the": 5426,
      "yes": 5427,
      "of:": 5428,
      "tower": 5429,
      "shop": 5430,
      "commonly": 5431,
      "revision": 5432,
      "##we": 5433,
      "0.06": 5434,
      "roic": 5435,
      "foreclosure": 5436,
      "commitments,": 5437,
      "1.5%": 5438,
      "ruling": 5439,
      "proposal": 5440,
      "q1,": 5441,
      "generation,": 5442,
      "turn,": 5443,
      "unrelated": 5444,
      "tends": 5445,
      "hopefully": 5446,
      "extreme": 5447,
      "sellers": 5448,
      "co.'s": 5449,
      "“": 5450,
      "##hi": 5451,
      "mis": 5452,
      "##ow": 5453,
      "ne": 5454,
      "prolonged": 5455,
      "founded": 5456,
      "beta": 5457,
      "slowed": 5458,
      "v.": 5459,
      "secondly,": 5460,
      "brand,": 5461,
      "##mo": 5462,
      "caption": 5463,
      "##kin": 5464,
      "remove": 5465,
      "initiation": 5466,
      "temporarily": 5467,
      "themselves": 5468,
      "refinery": 5469,
      "eea": 5470,
      "mbs": 5471,
      "dependence": 5472,
      "prepayments": 5473,
      "write-downs": 5474,
      "(d)": 5475,
      "spin-off": 5476,
      "##gan": 5477,
      "imposition": 5478,
      "stabilize": 5479,
      "41%": 5480,
      "substances": 5481,
      "anticipation": 5482,
      "##ore": 5483,
      "maintenance,": 5484,
      "nursing": 5485,
      "greatest": 5486,
      "furniture": 5487,
      "37%": 5488,
      "nextel": 5489,
      "discontinue": 5490,
      "composite": 5491,
      "##med": 5492,
      "ron": 5493,
      "##zed": 5494,
      "connectivity": 5495,
      "continuation": 5496,
      "er": 5497,
      "examples": 5498,
      "##ax": 5499,
      "##bi": 5500,
      "substitute": 5501,
      "ngl": 5502,
      "institute": 5503,
      "fannie": 5504,
      "cb": 5505,
      "secret": 5506,
      "more,": 5507,
      "leaders": 5508,
      "750": 5509,
      "jump": 5510,
      "backed": 5511,
      "##ap": 5512,
      "integrity": 5513,
      "bc": 5514,
      "shape": 5515,
      "cardiovascular": 5516,
      "secular": 5517,
      "(indiscernible)": 5518,
      "benefiting": 5519,
      "edison": 5520,
      "minor": 5521,
      "residents:": 5522,
      "h": 5523,
      "7.2": 5524,
      "fulfillment": 5525,
      "interstate": 5526,
      "##s.": 5527,
      "annum": 5528,
      "commission,": 5529,
      "7.8": 5530,
      "breaches": 5531,
      "st": 5532,
      "deployed": 5533,
      "##ware": 5534,
      "##/d": 5535,
      "##ot": 5536,
      "owing": 5537,
      "havenâ": 5538,
      "ticket": 5539,
      "financials": 5540,
      "subjects": 5541,
      "recognizing": 5542,
      "4)": 5543,
      "surprise": 5544,
      "##by": 5545,
      "train": 5546,
      "##c)": 5547,
      "broadcasting": 5548,
      "menu": 5549,
      "depressed": 5550,
      "forecast,": 5551,
      "billings": 5552,
      "group's": 5553,
      "internationally": 5554,
      "##22": 5555,
      "cp": 5556,
      "charge,": 5557,
      "clearly,": 5558,
      "##ser": 5559,
      "challenged": 5560,
      "est": 5561,
      "##45": 5562,
      "##13": 5563,
      "strike": 5564,
      "permission": 5565,
      "meets": 5566,
      "apparent": 5567,
      "notional": 5568,
      "flu": 5569,
      "publish": 5570,
      "extending": 5571,
      "1.00": 5572,
      "(h": 5573,
      "##mi": 5574,
      "supplementary": 5575,
      "##pe": 5576,
      "pre": 5577,
      "carolina": 5578,
      "homebuilding": 5579,
      "golf": 5580,
      "seller": 5581,
      "begins": 5582,
      "inhibitor": 5583,
      "locations,": 5584,
      "##a-": 5585,
      "7.6": 5586,
      "selective": 5587,
      "lawsuit": 5588,
      "q2,": 5589,
      "citi": 5590,
      "(inaudible)": 5591,
      "mergers": 5592,
      "amend": 5593,
      "##a)": 5594,
      "##\\u": 5595,
      "evaluates": 5596,
      "replay": 5597,
      "proceeding": 5598,
      "prefer": 5599,
      "erosion": 5600,
      "brad": 5601,
      "grand": 5602,
      "con": 5603,
      "passenger": 5604,
      "recoverable": 5605,
      "compensate": 5606,
      "category,": 5607,
      "7.4": 5608,
      "non-us": 5609,
      "mechanical": 5610,
      "amgen": 5611,
      "preference": 5612,
      "midwest": 5613,
      "threat": 5614,
      "vacation": 5615,
      "cars": 5616,
      "alter": 5617,
      "previously,": 5618,
      "proposition": 5619,
      "(all": 5620,
      "eye": 5621,
      "aside": 5622,
      "dramatic": 5623,
      "stockholders,": 5624,
      "##ins": 5625,
      "goodwill,": 5626,
      "williams": 5627,
      "(europe)": 5628,
      "63.": 5629,
      "introductions": 5630,
      "brokers": 5631,
      "##25": 5632,
      "contingency": 5633,
      "defaults": 5634,
      "qualification": 5635,
      "matures": 5636,
      "ranking": 5637,
      "introducing": 5638,
      "remote": 5639,
      "total,": 5640,
      "therapies": 5641,
      "fulfill": 5642,
      "##ging": 5643,
      "throughput": 5644,
      "audits": 5645,
      "formulation": 5646,
      "os": 5647,
      "exclusively": 5648,
      "vulnerable": 5649,
      "analysts,": 5650,
      "traditionally": 5651,
      "ops": 5652,
      "establishment": 5653,
      "7.7": 5654,
      "evaluations": 5655,
      "infringe": 5656,
      "ice": 5657,
      "liberty": 5658,
      "gdp": 5659,
      "garden": 5660,
      "footage": 5661,
      "whenever": 5662,
      "##ons": 5663,
      "(r": 5664,
      "impede": 5665,
      "documentation": 5666,
      "distributors,": 5667,
      "power,": 5668,
      "adam": 5669,
      "##led": 5670,
      "hub": 5671,
      "wire": 5672,
      "12-": 5673,
      "'": 5674,
      "charts": 5675,
      "##ability": 5676,
      "deficit": 5677,
      "##all": 5678,
      "week,": 5679,
      "todd": 5680,
      "southeast": 5681,
      "measuring": 5682,
      "43%": 5683,
      "regulate": 5684,
      "##ger": 5685,
      "leach,": 5686,
      "jon": 5687,
      "##tech": 5688,
      "unit,": 5689,
      "mississippi": 5690,
      "two,": 5691,
      "redevelopment": 5692,
      "##02": 5693,
      "?.": 5694,
      "administered": 5695,
      "pipelines": 5696,
      "germany,": 5697,
      "##ct": 5698,
      "talent": 5699,
      "reuters": 5700,
      "footwear": 5701,
      "aforementioned": 5702,
      "creative": 5703,
      "outstanding,": 5704,
      "appendix": 5705,
      "97": 5706,
      "md": 5707,
      "##und": 5708,
      "##rs,": 5709,
      "q3,": 5710,
      "one-year": 5711,
      "##75": 5712,
      "drawn": 5713,
      "dollars,": 5714,
      "##60": 5715,
      "(approximately": 5716,
      "advertisers": 5717,
      "##ix": 5718,
      "marked": 5719,
      "perpetual": 5720,
      "##fs": 5721,
      "##19": 5722,
      "44%": 5723,
      "absolutely": 5724,
      "mills": 5725,
      "whatsoever": 5726,
      "8.3": 5727,
      "suitability": 5728,
      "##sion": 5729,
      "cold": 5730,
      "seismic": 5731,
      "10%,": 5732,
      "ocean": 5733,
      "##bank": 5734,
      "continuously": 5735,
      "moment": 5736,
      "##share": 5737,
      "event,": 5738,
      "60.": 5739,
      "purchaser": 5740,
      "differentiated": 5741,
      "prevention": 5742,
      "disconnect": 5743,
      "months;": 5744,
      "9.5": 5745,
      "170": 5746,
      "##-e": 5747,
      "th": 5748,
      "duty": 5749,
      "pipeline,": 5750,
      "german": 5751,
      "expired": 5752,
      "antibody": 5753,
      "books": 5754,
      "align": 5755,
      "acquisition-related": 5756,
      "gaap,": 5757,
      "imply": 5758,
      "full-time": 5759,
      "anthony": 5760,
      "##17": 5761,
      "cy": 5762,
      "calculations": 5763,
      "minutes": 5764,
      "dubai": 5765,
      "(212)": 5766,
      "##-o": 5767,
      "softness": 5768,
      "##m)": 5769,
      "resale": 5770,
      "##ron": 5771,
      "##tm": 5772,
      "resort": 5773,
      "in-house": 5774,
      "(e": 5775,
      "connect": 5776,
      "averages": 5777,
      "##han": 5778,
      "suspect": 5779,
      "issued,": 5780,
      "gen": 5781,
      "apartment": 5782,
      "average,": 5783,
      "booked": 5784,
      "certified": 5785,
      "larry": 5786,
      "costs;": 5787,
      "plastic": 5788,
      "otc": 5789,
      "balances,": 5790,
      "blended": 5791,
      "(4": 5792,
      "##ory": 5793,
      "##d)": 5794,
      "64.": 5795,
      "ts": 5796,
      "##n)": 5797,
      "measurements": 5798,
      "##s;": 5799,
      "##90": 5800,
      "dram": 5801,
      "adapt": 5802,
      "neutral,": 5803,
      "jan": 5804,
      "strategically": 5805,
      "option,": 5806,
      "legislation,": 5807,
      "involvement": 5808,
      "addressed": 5809,
      "ti": 5810,
      "loyalty": 5811,
      "gs": 5812,
      "##ja": 5813,
      "hiv": 5814,
      "engaging": 5815,
      "1,4": 5816,
      "sponsored": 5817,
      "jones": 5818,
      "used,": 5819,
      "shortages": 5820,
      "appraisal": 5821,
      "bir": 5822,
      "securities-related": 5823,
      "commence": 5824,
      "contractor": 5825,
      "cr": 5826,
      "leasehold": 5827,
      "preferences": 5828,
      "##zi": 5829,
      "nevada": 5830,
      "##-3": 5831,
      "lehman": 5832,
      "duke": 5833,
      "pd": 5834,
      "2020": 5835,
      "cooper": 5836,
      "49%": 5837,
      "metropolitan": 5838,
      "size,": 5839,
      "alliances": 5840,
      "ads": 5841,
      "format": 5842,
      "immune": 5843,
      "##8.": 5844,
      "organizations,": 5845,
      "billed": 5846,
      "5%,": 5847,
      "warranty,": 5848,
      "confidentiality": 5849,
      "##ks": 5850,
      "seoul": 5851,
      "crm": 5852,
      "1,3": 5853,
      "miss": 5854,
      "frequent": 5855,
      "beauty": 5856,
      "ss": 5857,
      "eitf": 5858,
      "emission": 5859,
      "prospects,": 5860,
      "stabilized": 5861,
      "machines": 5862,
      "##000,": 5863,
      "india,": 5864,
      "##500": 5865,
      "cardiac": 5866,
      "##bo": 5867,
      "attempts": 5868,
      "##ten": 5869,
      "kong:": 5870,
      "necessary,": 5871,
      "great,": 5872,
      "combine": 5873,
      "8.1": 5874,
      "furnished": 5875,
      "mi": 5876,
      "promotions": 5877,
      "exact": 5878,
      "##que": 5879,
      "unlike": 5880,
      "te": 5881,
      "trucks": 5882,
      "valid": 5883,
      "mall": 5884,
      "stabilization": 5885,
      "susceptible": 5886,
      "virtual": 5887,
      "competitive,": 5888,
      "returning": 5889,
      "owning": 5890,
      "damages,": 5891,
      "franchisees": 5892,
      "mountain": 5893,
      "anti-": 5894,
      "ct": 5895,
      "pays": 5896,
      "sure,": 5897,
      "##?.": 5898,
      "66.": 5899,
      "9.0": 5900,
      "stands": 5901,
      "nonrecurring": 5902,
      "##-10": 5903,
      "var": 5904,
      "?a": 5905,
      "pg": 5906,
      "yr/yr": 5907,
      "ball": 5908,
      "afternoon": 5909,
      "##dy": 5910,
      "thermal": 5911,
      "ab": 5912,
      "##.com,": 5913,
      "precision": 5914,
      "corporationâ": 5915,
      "vascular": 5916,
      "brings": 5917,
      "##tive": 5918,
      "7.5%": 5919,
      "hosting": 5920,
      "folks": 5921,
      "sterne": 5922,
      "##%)": 5923,
      "alpha": 5924,
      "indicating": 5925,
      "115": 5926,
      "commencing": 5927,
      "reproduction": 5928,
      "secrets": 5929,
      "restructured": 5930,
      "receivables,": 5931,
      "##ho": 5932,
      "cre": 5933,
      "67.": 5934,
      "##bp": 5935,
      "versions": 5936,
      "company-owned": 5937,
      "##gs": 5938,
      "reflective": 5939,
      "standpoint,": 5940,
      "association,": 5941,
      "thereto": 5942,
      "mo": 5943,
      "ace": 5944,
      "bullish": 5945,
      "dispose": 5946,
      "lp": 5947,
      "faced": 5948,
      "consequential": 5949,
      "##14": 5950,
      "rev": 5951,
      "farmer": 5952,
      "##05": 5953,
      "standpoint": 5954,
      "improvements,": 5955,
      "stand-alone": 5956,
      "clarity": 5957,
      "##che": 5958,
      "##9,000": 5959,
      "puts": 5960,
      "asking": 5961,
      "directionally": 5962,
      "ebay": 5963,
      "prescribed": 5964,
      "10,000": 5965,
      "waiting": 5966,
      "brazilian": 5967,
      "equal-weight,": 5968,
      "203": 5969,
      "discipline": 5970,
      "##a.": 5971,
      "horizontal": 5972,
      "devote": 5973,
      "##27": 5974,
      "aggregate,": 5975,
      "explore": 5976,
      "47%": 5977,
      "##market": 5978,
      "15.0": 5979,
      "##ties": 5980,
      "maturity,": 5981,
      "numbers,": 5982,
      "resolved": 5983,
      "conversely,": 5984,
      "miscellaneous": 5985,
      "noted,": 5986,
      "diamond": 5987,
      "motorola": 5988,
      "##-of-": 5989,
      "deduction": 5990,
      "miller": 5991,
      "10-year": 5992,
      "graphics": 5993,
      "immaterial": 5994,
      "skin": 5995,
      "##port": 5996,
      "chicago": 5997,
      "rod": 5998,
      "62.": 5999,
      "sc": 6000,
      "contamination": 6001,
      "da": 6002,
      "breast": 6003,
      "collaborations": 6004,
      "visits": 6005,
      "successful,": 6006,
      "designation": 6007,
      "three-": 6008,
      "reprinted,": 6009,
      "comprise": 6010,
      "disappointing": 6011,
      "philip": 6012,
      "ceo,": 6013,
      "recruiting": 6014,
      "39%": 6015,
      "##to-": 6016,
      "officer;": 6017,
      "ramping": 6018,
      "academic": 6019,
      "suggested": 6020,
      "##06": 6021,
      "exclusion": 6022,
      "audited": 6023,
      "fda,": 6024,
      "##35": 6025,
      "##over": 6026,
      "7.9": 6027,
      "unallocated": 6028,
      "entergy": 6029,
      "permitting": 6030,
      "experiences": 6031,
      "delinquencies": 6032,
      "referenced": 6033,
      "crop": 6034,
      "qoq": 6035,
      "fox": 6036,
      "behavior": 6037,
      "0.07": 6038,
      "redeemed": 6039,
      "12.5": 6040,
      "212": 6041,
      "clients)": 6042,
      "diversion": 6043,
      "sand": 6044,
      "fluctuation": 6045,
      "undue": 6046,
      "comparability": 6047,
      "turned": 6048,
      "methods,": 6049,
      "satisfactory": 6050,
      "##ker": 6051,
      "engineering,": 6052,
      "stuff": 6053,
      "exercised": 6054,
      "formation": 6055,
      "disability": 6056,
      "approvals,": 6057,
      "max": 6058,
      "servers": 6059,
      "co-managed": 6060,
      "culture": 6061,
      "okay": 6062,
      "##rated": 6063,
      "brown": 6064,
      "##ek": 6065,
      "(m": 6066,
      "fabrication": 6067,
      "plc,": 6068,
      "hereof": 6069,
      "##ize": 6070,
      "surgery": 6071,
      "straight": 6072,
      "reason,": 6073,
      "priorities": 6074,
      "fed": 6075,
      "hill": 6076,
      "pieces": 6077,
      "post-": 6078,
      "describe": 6079,
      "afternoon,": 6080,
      "observed": 6081,
      "mt": 6082,
      "commented": 6083,
      "maryland": 6084,
      "women": 6085,
      "bed": 6086,
      "injection": 6087,
      "hyperlinks": 6088,
      "happens": 6089,
      "yesterday": 6090,
      "send": 6091,
      "made,": 6092,
      "suggesting": 6093,
      "##8,000": 6094,
      "ar": 6095,
      "medtronic": 6096,
      "46%": 6097,
      "defects": 6098,
      "contractually": 6099,
      "method,": 6100,
      "barriers": 6101,
      "jpms": 6102,
      "ash": 6103,
      "95%": 6104,
      "(collectively": 6105,
      "procedure": 6106,
      "weighted-average": 6107,
      "reimbursements": 6108,
      "architecture": 6109,
      "##h,": 6110,
      "scenarios": 6111,
      "initiating": 6112,
      "if,": 6113,
      "popular": 6114,
      "(t": 6115,
      "##80": 6116,
      "packaged": 6117,
      "48%": 6118,
      "louisiana": 6119,
      "economically": 6120,
      "prc": 6121,
      "chapter": 6122,
      "cf": 6123,
      "nevertheless,": 6124,
      "nt": 6125,
      "3d": 6126,
      "##4,000": 6127,
      "uniform": 6128,
      "ultra": 6129,
      "sn": 6130,
      "attracting": 6131,
      "channels,": 6132,
      "alerts": 6133,
      "eli": 6134,
      "##house": 6135,
      "atlantic": 6136,
      "##ven": 6137,
      "sentiment": 6138,
      "##hip": 6139,
      "niche": 6140,
      "pure": 6141,
      "jet": 6142,
      "175": 6143,
      "monitors": 6144,
      "orphan": 6145,
      "employers": 6146,
      "deductions": 6147,
      "##zo": 6148,
      "md&a": 6149,
      "pronouncements": 6150,
      "pledged": 6151,
      "conservation": 6152,
      "emergency": 6153,
      "purchase,": 6154,
      "3.": 6155,
      "3g": 6156,
      "intelligence": 6157,
      "inadequate": 6158,
      "wish": 6159,
      "emerge": 6160,
      "confirm": 6161,
      "front,": 6162,
      "redistribution": 6163,
      "##70": 6164,
      "attacks": 6165,
      "##ence": 6166,
      "##e)": 6167,
      "cogs": 6168,
      "68.": 6169,
      "contracting": 6170,
      "220": 6171,
      "nature,": 6172,
      "market;": 6173,
      "interface": 6174,
      "0.15": 6175,
      "limitation,": 6176,
      "save": 6177,
      "pipe": 6178,
      "extensions": 6179,
      "developers": 6180,
      "##-4": 6181,
      "##lt": 6182,
      "parts,": 6183,
      "cycle,": 6184,
      "pounds": 6185,
      "implications": 6186,
      "ta": 6187,
      "expressions": 6188,
      "register": 6189,
      "canâ": 6190,
      "interchange": 6191,
      "urban": 6192,
      "evidenced": 6193,
      "depth": 6194,
      "manufacture,": 6195,
      "florida,": 6196,
      "brokered": 6197,
      "cdma": 6198,
      "standardized": 6199,
      "diseases": 6200,
      "ph": 6201,
      "##ain": 6202,
      "rolled": 6203,
      "##04": 6204,
      "##ig": 6205,
      "number,": 6206,
      "mgmt": 6207,
      "##16": 6208,
      "heat": 6209,
      "delinquent": 6210,
      "diligence": 6211,
      "e-": 6212,
      "freddie": 6213,
      "fab": 6214,
      "##1,000": 6215,
      "research.": 6216,
      "markets;": 6217,
      "customized": 6218,
      "190": 6219,
      "##-owned": 6220,
      "speaking": 6221,
      "8.6": 6222,
      "translate": 6223,
      "computed": 6224,
      "allocations": 6225,
      "0.08": 6226,
      "ross": 6227,
      "10.5": 6228,
      "me,": 6229,
      "causes": 6230,
      "unamortized": 6231,
      "openings": 6232,
      "escrow": 6233,
      "processor": 6234,
      "##ied": 6235,
      "3.5%": 6236,
      "app": 6237,
      "standing": 6238,
      "airlines": 6239,
      "58.": 6240,
      "##/f": 6241,
      "downstream": 6242,
      "##di": 6243,
      "sanctions": 6244,
      "ba": 6245,
      "keith": 6246,
      "sp": 6247,
      "agent,": 6248,
      "1,5": 6249,
      "audience": 6250,
      "projecting": 6251,
      "##tra": 6252,
      "51%": 6253,
      "improvement,": 6254,
      "renewals": 6255,
      "des": 6256,
      "thousands": 6257,
      "estimation": 6258,
      "withholding": 6259,
      "8.4": 6260,
      "county,": 6261,
      "##e.": 6262,
      "pilot": 6263,
      "review,": 6264,
      "accrue": 6265,
      "third,": 6266,
      "sites,": 6267,
      "##so": 6268,
      "that:": 6269,
      "cra": 6270,
      "##end": 6271,
      "defending": 6272,
      "pertaining": 6273,
      "jpm": 6274,
      "operator,": 6275,
      "half,": 6276,
      "strip": 6277,
      "appeals": 6278,
      "appointed": 6279,
      "##ual": 6280,
      "instance,": 6281,
      "den": 6282,
      "bonds,": 6283,
      "inflation,": 6284,
      "trough": 6285,
      "studies,": 6286,
      "(5": 6287,
      "charge-off": 6288,
      "upstream": 6289,
      "##yn": 6290,
      "(at": 6291,
      "adjacent": 6292,
      "segment's": 6293,
      "8.2": 6294,
      "cbs": 6295,
      "effected": 6296,
      "adjustments,": 6297,
      "alan": 6298,
      "compensated": 6299,
      "attrition": 6300,
      "see,": 6301,
      "##ded": 6302,
      "##lin": 6303,
      "reader": 6304,
      "government,": 6305,
      "65.": 6306,
      "taxing": 6307,
      "dominant": 6308,
      "reset": 6309,
      "[over": 6310,
      "10-15%": 6311,
      "budgets": 6312,
      "underground": 6313,
      "detect": 6314,
      "f200": 6315,
      "hydraulic": 6316,
      "losing": 6317,
      "—": 6318,
      "productive": 6319,
      "relies": 6320,
      "##ful": 6321,
      "ak": 6322,
      "low-cost": 6323,
      "cal": 6324,
      "il": 6325,
      "crisis": 6326,
      "redeemable": 6327,
      "##ess": 6328,
      "bb": 6329,
      "study,": 6330,
      "undiscounted": 6331,
      "accuracy,": 6332,
      "amazon": 6333,
      "##rc": 6334,
      "##18": 6335,
      "placebo": 6336,
      "##31": 6337,
      "##cap": 6338,
      "corrective": 6339,
      "55.": 6340,
      "tri": 6341,
      "trial,": 6342,
      "licenses,": 6343,
      "upgrading": 6344,
      "##03": 6345,
      "9.2": 6346,
      "500,000": 6347,
      "##—": 6348,
      "alternate": 6349,
      "pump": 6350,
      "##6,000": 6351,
      "##ort": 6352,
      "##tal": 6353,
      "##sing": 6354,
      "southwest": 6355,
      "react": 6356,
      "rt": 6357,
      "fy12": 6358,
      "buybacks": 6359,
      "his/her": 6360,
      "catalog": 6361,
      "hc": 6362,
      "launching": 6363,
      "discounting": 6364,
      "3m": 6365,
      "##3,000": 6366,
      "##-up": 6367,
      "leverage,": 6368,
      "flight": 6369,
      "depot": 6370,
      "recoverability": 6371,
      "reproduced": 6372,
      "onto": 6373,
      "##ana": 6374,
      "pickup": 6375,
      "logic": 6376,
      "reimbursed": 6377,
      "prospect": 6378,
      "subs": 6379,
      "ly": 6380,
      "ep": 6381,
      "expiring": 6382,
      "ac": 6383,
      "##65": 6384,
      "incorporates": 6385,
      "they've": 6386,
      "willingness": 6387,
      "install": 6388,
      "contributor": 6389,
      "contemplated": 6390,
      "pools": 6391,
      "##08": 6392,
      "ku": 6393,
      "69.": 6394,
      "fix": 6395,
      "director,": 6396,
      "endpoint": 6397,
      "##well": 6398,
      "douglas": 6399,
      "157": 6400,
      "bidding": 6401,
      "##un": 6402,
      "(financial": 6403,
      "are:": 6404,
      "(asia)": 6405,
      "rebates": 6406,
      "incurring": 6407,
      "4.5%": 6408,
      "presentation,": 6409,
      "symbol": 6410,
      "restructuring,": 6411,
      "standby": 6412,
      "reporting,": 6413,
      "together,": 6414,
      "sap": 6415,
      "##ab": 6416,
      "inter": 6417,
      "##tz": 6418,
      "bus": 6419,
      "assets;": 6420,
      "(to": 6421,
      "appropriateness": 6422,
      "##con": 6423,
      "##vo": 6424,
      "##down": 6425,
      "im": 6426,
      "sharply": 6427,
      "##low": 6428,
      "##ci": 6429,
      "comfort": 6430,
      "jurisdictions,": 6431,
      "preserve": 6432,
      "sent": 6433,
      "8.8": 6434,
      "penny": 6435,
      "dollar,": 6436,
      "3%,": 6437,
      "##fo": 6438,
      "hoping": 6439,
      "anti": 6440,
      "sponsor": 6441,
      "##46": 6442,
      "non-a": 6443,
      "ms.": 6444,
      "##ric": 6445,
      "attributes": 6446,
      "ga": 6447,
      "##ert": 6448,
      "71.": 6449,
      "marc": 6450,
      "trademarks,": 6451,
      "##38": 6452,
      "nationwide": 6453,
      "imports": 6454,
      "cl": 6455,
      "0.20": 6456,
      "cancel": 6457,
      "##2,000": 6458,
      "profit,": 6459,
      "coke": 6460,
      "judicial": 6461,
      "325": 6462,
      "##88": 6463,
      "installment": 6464,
      "##pp": 6465,
      "##ul": 6466,
      "fixed-rate": 6467,
      "404": 6468,
      "1934,": 6469,
      "##-a": 6470,
      "tire": 6471,
      "iso": 6472,
      "universe.]": 6473,
      "automatic": 6474,
      "##36": 6475,
      "hs": 6476,
      "fsp": 6477,
      "penalty": 6478,
      "##21": 6479,
      "procedures,": 6480,
      "(rl": 6481,
      "##oc": 6482,
      "##ville": 6483,
      "incorporated,": 6484,
      "statement,": 6485,
      "##(r)": 6486,
      "wages": 6487,
      "ni": 6488,
      "##7,000": 6489,
      "intermediate": 6490,
      "uptick": 6491,
      "##ran": 6492,
      "trans": 6493,
      "screen": 6494,
      "health,": 6495,
      "fy11": 6496,
      "unfunded": 6497,
      "cvs": 6498,
      "##pi": 6499,
      "multifamily": 6500,
      "reuters,": 6501,
      "instances,": 6502,
      "xl": 6503,
      "customers;": 6504,
      "roa": 6505,
      "1993,": 6506,
      "##ast": 6507,
      "janney": 6508,
      "##ical": 6509,
      "dispute": 6510,
      "bankâ": 6511,
      "january,": 6512,
      "conditions;": 6513,
      "fluctuations,": 6514,
      "vi": 6515,
      "storm": 6516,
      "\"retail": 6517,
      "los": 6518,
      "children": 6519,
      "ratably": 6520,
      "n.a.": 6521,
      "##hu": 6522,
      "50.0": 6523,
      "northeast": 6524,
      "sought": 6525,
      "accommodate": 6526,
      "cn": 6527,
      "authority,": 6528,
      "##ai": 6529,
      "departments": 6530,
      "single-digit": 6531,
      "\"the": 6532,
      "listen-only": 6533,
      "##ned": 6534,
      "tp": 6535,
      "howard": 6536,
      "considerations": 6537,
      "clarify": 6538,
      "death": 6539,
      "bn": 6540,
      "benchmark,": 6541,
      "db": 6542,
      "succeed": 6543,
      "tony": 6544,
      "##s-": 6545,
      "lodging": 6546,
      "metro": 6547,
      "channel,": 6548,
      "##sm": 6549,
      "analyzing": 6550,
      "sit": 6551,
      "trusts": 6552,
      "washington,": 6553,
      "bright": 6554,
      "550": 6555,
      "4%,": 6556,
      "k.": 6557,
      "implied,": 6558,
      "bio": 6559,
      "##tan": 6560,
      "conclusions": 6561,
      "beer": 6562,
      "city,": 6563,
      "grid": 6564,
      "##ox": 6565,
      "namely": 6566,
      "##32": 6567,
      "##5.": 6568,
      "arabia": 6569,
      "##55": 6570,
      "(primarily": 6571,
      "landscape": 6572,
      "##42": 6573,
      "helpful": 6574,
      "tra": 6575,
      "(v)": 6576,
      "biological": 6577,
      "coupon": 6578,
      "##ans": 6579,
      "refined": 6580,
      "faith": 6581,
      "##ster": 6582,
      "positive,": 6583,
      "##ud": 6584,
      "first-": 6585,
      "singapore,": 6586,
      "ha": 6587,
      "commencement": 6588,
      "campaign": 6589,
      "bermuda": 6590,
      "large,": 6591,
      "72.": 6592,
      "##berg": 6593,
      "##ities": 6594,
      "disc": 6595,
      "mode": 6596,
      "##sta": 6597,
      "required,": 6598,
      "strengths": 6599,
      "mortality": 6600,
      "##wood": 6601,
      "##ments": 6602,
      "for:": 6603,
      "reputation,": 6604,
      "pivotal": 6605,
      "##...": 6606,
      "q&a": 6607,
      "divested": 6608,
      "centralized": 6609,
      "months.": 6610,
      "sec,": 6611,
      "##-5": 6612,
      "##yr": 6613,
      "owed": 6614,
      "##ea": 6615,
      "lighting": 6616,
      "rs": 6617,
      "confirmed": 6618,
      "desired": 6619,
      "complaint": 6620,
      "tumor": 6621,
      "standalone": 6622,
      "baxter": 6623,
      "sr": 6624,
      "michigan": 6625,
      "tyco": 6626,
      "##200": 6627,
      "purchases,": 6628,
      "webcast": 6629,
      "57.": 6630,
      "hy": 6631,
      "##ris": 6632,
      "subscriptions": 6633,
      "simon": 6634,
      "love": 6635,
      "co-": 6636,
      "bruce": 6637,
      "kanto": 6638,
      "##ist": 6639,
      "bears": 6640,
      "retailers,": 6641,
      "asset-backed": 6642,
      "indicated,": 6643,
      "5-year": 6644,
      "noble": 6645,
      "56.": 6646,
      "142": 6647,
      "principle": 6648,
      "mp": 6649,
      "1-": 6650,
      "screening": 6651,
      "pv": 6652,
      "financings": 6653,
      "fines,": 6654,
      "work,": 6655,
      "##fi": 6656,
      "fe": 6657,
      "deficiencies": 6658,
      "cm": 6659,
      "[data\\utable\\uremoved\\u1": 6660,
      "worldwide,": 6661,
      "##2.": 6662,
      "finish": 6663,
      "##den": 6664,
      "##les": 6665,
      "##s'": 6666,
      "marriott": 6667,
      "notably": 6668,
      "##s),": 6669,
      "summary,": 6670,
      "grocery": 6671,
      "plaintiffs": 6672,
      "exceptional": 6673,
      "art": 6674,
      "heightened": 6675,
      "fy10": 6676,
      "diabetes": 6677,
      "##ular": 6678,
      "hydro": 6679,
      "##64": 6680,
      "20.0": 6681,
      "explain": 6682,
      "##ring": 6683,
      "8.7": 6684,
      "commercial,": 6685,
      "combining": 6686,
      "markets'": 6687,
      "deal,": 6688,
      "cad": 6689,
      "##ming": 6690,
      "values,": 6691,
      "hsbc": 6692,
      "young": 6693,
      "worst": 6694,
      "background": 6695,
      "research:": 6696,
      "booking": 6697,
      "realizable": 6698,
      "outpatient": 6699,
      "##85": 6700,
      "battery": 6701,
      "breakeven": 6702,
      "merchants": 6703,
      "##ish": 6704,
      "weaknesses": 6705,
      "france,": 6706,
      "(“": 6707,
      "deferral": 6708,
      "analyst,": 6709,
      "lu": 6710,
      "?we": 6711,
      "##r)": 6712,
      "ind": 6713,
      "round": 6714,
      "mobility": 6715,
      "families": 6716,
      "73.": 6717,
      "protecting": 6718,
      "layer": 6719,
      "massachusetts": 6720,
      "##23": 6721,
      "p&l": 6722,
      "company-specific": 6723,
      "assortment": 6724,
      "8-k": 6725,
      "##67": 6726,
      "treating": 6727,
      "contraction": 6728,
      "deductible": 6729,
      "9.1": 6730,
      "11.5": 6731,
      "(s": 6732,
      "gp": 6733,
      "(singapore)": 6734,
      "theme": 6735,
      "6.5%": 6736,
      "##mp": 6737,
      "phil": 6738,
      "multi": 6739,
      "treatments": 6740,
      "instances": 6741,
      "eliminating": 6742,
      "##lla": 6743,
      "##62": 6744,
      "substitution": 6745,
      "listings": 6746,
      "##34": 6747,
      "thin": 6748,
      "thirteen": 6749,
      "sidoti": 6750,
      "excise": 6751,
      "liens": 6752,
      "stock;": 6753,
      "##ving": 6754,
      "plant,": 6755,
      "##ew": 6756,
      "wisconsin": 6757,
      "acid": 6758,
      "banco": 6759,
      "lilly": 6760,
      "expect,": 6761,
      "8.9": 6762,
      "stated,": 6763,
      "doesnâ": 6764,
      "diversity": 6765,
      "approaches": 6766,
      "5.5%": 6767,
      "##men": 6768,
      "won": 6769,
      "##week": 6770,
      "sab": 6771,
      "notable": 6772,
      "##66": 6773,
      "ranked": 6774,
      "lean": 6775,
      "hyper": 6776,
      "observable": 6777,
      "mn": 6778,
      "enjoy": 6779,
      "internationally,": 6780,
      "language": 6781,
      "9.3": 6782,
      "explained": 6783,
      "##des": 6784,
      "25.0": 6785,
      "labeling": 6786,
      "##x)": 6787,
      "heating": 6788,
      "evolution": 6789,
      "tablet": 6790,
      "mid-single": 6791,
      "scrutiny": 6792,
      "therapeutics": 6793,
      "conducts": 6794,
      "##24": 6795,
      "240": 6796,
      "196": 6797,
      "relocation": 6798,
      "discharge": 6799,
      "considerably": 6800,
      "ray": 6801,
      "un": 6802,
      "ali": 6803,
      "existence": 6804,
      "machinery": 6805,
      "scrap": 6806,
      "2%,": 6807,
      "##res": 6808,
      "##ei": 6809,
      "conformity": 6810,
      "engineers": 6811,
      "approved,": 6812,
      "peers,": 6813,
      "##28": 6814,
      "##69": 6815,
      "adult": 6816,
      "diversify": 6817,
      "singapore:": 6818,
      "74.": 6819,
      "##0,000": 6820,
      "promulgated": 6821,
      "##sis": 6822,
      "fields": 6823,
      "task": 6824,
      "susquehanna": 6825,
      "7a.": 6826,
      "east,": 6827,
      "indemnify": 6828,
      "360": 6829,
      "outperformance": 6830,
      "reserved": 6831,
      "has,": 6832,
      "gift": 6833,
      "houston": 6834,
      "650": 6835,
      "depletion": 6836,
      "##ight": 6837,
      "##ep": 6838,
      "domestically": 6839,
      "hosted": 6840,
      "savings,": 6841,
      "referring": 6842,
      "baker": 6843,
      "substance": 6844,
      "##ear": 6845,
      "##91": 6846,
      "rc": 6847,
      "##ility": 6848,
      "jointly": 6849,
      "surcharge": 6850,
      "pollution": 6851,
      "synthetic": 6852,
      "conversations": 6853,
      "ships": 6854,
      "##ail": 6855,
      "judgement": 6856,
      "incorporating": 6857,
      "disposed": 6858,
      "protocol": 6859,
      "##75%": 6860,
      "assigning": 6861,
      "##ou": 6862,
      "june,": 6863,
      "organization,": 6864,
      "tax-exempt": 6865,
      "##37": 6866,
      "##po": 6867,
      "ap": 6868,
      "##ther": 6869,
      "certainly,": 6870,
      "tm": 6871,
      "broking": 6872,
      "purchasers": 6873,
      "vendors,": 6874,
      "api": 6875,
      "integral": 6876,
      "accomplish": 6877,
      "expands": 6878,
      "recognizes": 6879,
      "ppl": 6880,
      "repairs": 6881,
      "5-": 6882,
      "##2)": 6883,
      "1,7": 6884,
      "##5,000": 6885,
      "wave": 6886,
      "authorities,": 6887,
      "catastrophic": 6888,
      "party,": 6889,
      "predecessor": 6890,
      "evercore": 6891,
      "yielding": 6892,
      "gotten": 6893,
      "9.4": 6894,
      "6%,": 6895,
      "merged": 6896,
      "kim": 6897,
      "med": 6898,
      "gregory": 6899,
      "##0.": 6900,
      "die": 6901,
      "risk-weighted": 6902,
      "##4.": 6903,
      "at,": 6904,
      "9.7": 6905,
      "contrast": 6906,
      "expressing": 6907,
      "career": 6908,
      "baseline": 6909,
      "equals": 6910,
      "##ane": 6911,
      "##su": 6912,
      "##water": 6913,
      "underway": 6914,
      "csfb": 6915,
      "him": 6916,
      "rico": 6917,
      "salaries,": 6918,
      "quantity": 6919,
      "70.": 6920,
      "company(ies)": 6921,
      "145": 6922,
      "##/0": 6923,
      "told": 6924,
      "schedules": 6925,
      "ours": 6926,
      "operation,": 6927,
      "##73": 6928,
      "real-time": 6929,
      "ounces": 6930,
      "suspend": 6931,
      "deeper": 6932,
      "demographic": 6933,
      "nielsen": 6934,
      "processors": 6935,
      "bandwidth": 6936,
      "##nes": 6937,
      "stanley,": 6938,
      "##ght": 6939,
      "(continued)": 6940,
      "frb": 6941,
      "supply,": 6942,
      "newspaper": 6943,
      "informed": 6944,
      "prompt": 6945,
      "annuities": 6946,
      "fertilizer": 6947,
      "watson": 6948,
      "aligned": 6949,
      "dialysis": 6950,
      "retail,": 6951,
      "erp": 6952,
      "transportation,": 6953,
      "##48": 6954,
      "applicable,": 6955,
      "statementsâ": 6956,
      "correlation": 6957,
      "proceedings,": 6958,
      "##ping": 6959,
      "converting": 6960,
      "(losses)": 6961,
      "flex": 6962,
      "sears": 6963,
      "bull": 6964,
      "##cation": 6965,
      "provisions,": 6966,
      "oreo": 6967,
      "unearned": 6968,
      "com": 6969,
      "(i.e.": 6970,
      "thousands,": 6971,
      "anniversary": 6972,
      "proud": 6973,
      "##od": 6974,
      "smartphone": 6975,
      "##54": 6976,
      "##ries": 6977,
      "casual": 6978,
      "recycling": 6979,
      "homeowners": 6980,
      "recruit": 6981,
      "2h": 6982,
      "##100": 6983,
      "finalized": 6984,
      "indemnity": 6985,
      "9.6": 6986,
      "##ably": 6987,
      "l.l.c.": 6988,
      "status,": 6989,
      "powerful": 6990,
      "float": 6991,
      "judge": 6992,
      "anticipating": 6993,
      "bundesanstalt": 6994,
      "mines": 6995,
      "protection,": 6996,
      "##mon": 6997,
      "spa": 6998,
      "strengthened": 6999,
      "##ati": 7000,
      "ratios,": 7001,
      "consolidating": 7002,
      "offer,": 7003,
      "##vi": 7004,
      "identical": 7005,
      "stem": 7006,
      "assert": 7007,
      "ran": 7008,
      "threats": 7009,
      "spain": 7010,
      "segmentâ": 7011,
      "9.8": 7012,
      "recognition,": 7013,
      "predictable": 7014,
      "expertise,": 7015,
      "effect,": 7016,
      "complete,": 7017,
      "two-year": 7018,
      "spanish": 7019,
      "pointed": 7020,
      "pin": 7021,
      "payables": 7022,
      "implying": 7023,
      "creek": 7024,
      "clo": 7025,
      "ethernet": 7026,
      "regions,": 7027,
      "collins": 7028,
      "lumber": 7029,
      "weeks,": 7030,
      "nick": 7031,
      "rates;": 7032,
      "coatings": 7033,
      "secretary": 7034,
      "banc": 7035,
      "gradually": 7036,
      "dean": 7037,
      "resorts": 7038,
      "trust,": 7039,
      "##92": 7040,
      "##ah": 7041,
      "ja": 7042,
      "77.": 7043,
      "##81": 7044,
      "cruise": 7045,
      "76.": 7046,
      "people,": 7047,
      "anticipated,": 7048,
      "commissions,": 7049,
      "hr": 7050,
      "improves": 7051,
      "##hl": 7052,
      "trigger": 7053,
      "ns": 7054,
      "foodservice": 7055,
      "grace": 7056,
      "va": 7057,
      "distributing": 7058,
      "##tel": 7059,
      "unsuccessful": 7060,
      "##star": 7061,
      "road,": 7062,
      "preclude": 7063,
      "russia": 7064,
      "life,": 7065,
      "detection": 7066,
      "reaction": 7067,
      "asia-pacific": 7068,
      "135": 7069,
      "?2012": 7070,
      "81.": 7071,
      "molecular": 7072,
      "pf": 7073,
      "twice": 7074,
      "sterling": 7075,
      "absorption": 7076,
      "0.12": 7077,
      "##33": 7078,
      "(-": 7079,
      "regarded": 7080,
      "weather,": 7081,
      "restructure": 7082,
      "cited": 7083,
      "ingredients": 7084,
      "##ile": 7085,
      "seriously": 7086,
      "##yl": 7087,
      "positions,": 7088,
      "rec": 7089,
      "ea": 7090,
      "che": 7091,
      "outsourced": 7092,
      "discussed,": 7093,
      "notification": 7094,
      "retired": 7095,
      "\"a": 7096,
      "##era": 7097,
      "replacing": 7098,
      "po": 7099,
      "##3)": 7100,
      "(collectively,": 7101,
      "##é": 7102,
      "photo": 7103,
      "new,": 7104,
      "develops": 7105,
      "genzyme": 7106,
      "steam": 7107,
      "disk": 7108,
      "franchises": 7109,
      "cubic": 7110,
      "recovery,": 7111,
      "qui": 7112,
      "spin": 7113,
      "dosing": 7114,
      "]": 7115,
      "isn't": 7116,
      "expend": 7117,
      "consistency": 7118,
      "virtue": 7119,
      "(on": 7120,
      "##of": 7121,
      "##sc": 7122,
      "evolve": 7123,
      "situation,": 7124,
      "enrolled": 7125,
      "high-": 7126,
      "tools,": 7127,
      "statute": 7128,
      "jmp": 7129,
      "short-": 7130,
      "winning": 7131,
      "multi-": 7132,
      "warning": 7133,
      "yen": 7134,
      "titles": 7135,
      "absent": 7136,
      "centre": 7137,
      "restrictions,": 7138,
      "modules": 7139,
      "exercises": 7140,
      "cargo": 7141,
      "undertaken": 7142,
      "burns": 7143,
      "indicated:": 7144,
      "##82": 7145,
      "##ney": 7146,
      "(malaysia)": 7147,
      "##form": 7148,
      "bias": 7149,
      "environments": 7150,
      "aimed": 7151,
      "##39": 7152,
      "guest": 7153,
      "79.": 7154,
      "target:": 7155,
      "generics": 7156,
      "gt": 7157,
      "resident": 7158,
      "supplies,": 7159,
      "##lan": 7160,
      "pp": 7161,
      "##/e": 7162,
      "fedex": 7163,
      "developer": 7164,
      "82.": 7165,
      "india:": 7166,
      "oilfield": 7167,
      "meanings": 7168,
      "targets,": 7169,
      "write-offs": 7170,
      "53%": 7171,
      "sa": 7172,
      "8%,": 7173,
      "draft": 7174,
      "##rate": 7175,
      "##25%": 7176,
      "category;": 7177,
      "105": 7178,
      "nim": 7179,
      "##07": 7180,
      "slides": 7181,
      "##.)": 7182,
      "terrorism": 7183,
      "si": 7184,
      "td": 7185,
      "progressive": 7186,
      "upgraded": 7187,
      "stewart": 7188,
      "-1": 7189,
      "operate,": 7190,
      "rating:": 7191,
      "(where": 7192,
      "se": 7193,
      "##.,": 7194,
      "12.0": 7195,
      "1:": 7196,
      "sorry,": 7197,
      "m)": 7198,
      "words,": 7199,
      "pan": 7200,
      "aging": 7201,
      "instituted": 7202,
      "78.": 7203,
      "mechanisms": 7204,
      "appliance": 7205,
      "##ship": 7206,
      "qualcomm": 7207,
      "##5)": 7208,
      "supplied": 7209,
      "indeed,": 7210,
      "montgomery": 7211,
      "everyone,": 7212,
      "in-process": 7213,
      "2011.": 7214,
      "fort": 7215,
      "really,": 7216,
      "133": 7217,
      "hour": 7218,
      "differentiate": 7219,
      "(b": 7220,
      "0.5%": 7221,
      "54.": 7222,
      "adobe": 7223,
      "suit": 7224,
      "reits": 7225,
      "10.2": 7226,
      "##52": 7227,
      "timing,": 7228,
      "nand": 7229,
      "section,": 7230,
      "abuse": 7231,
      "lo": 7232,
      "buys": 7233,
      "utilities,": 7234,
      "actually,": 7235,
      "(except": 7236,
      "inventories,": 7237,
      "geographies": 7238,
      "fo": 7239,
      "surety": 7240,
      "allstate": 7241,
      "52%": 7242,
      "##26": 7243,
      "luxury": 7244,
      "territories": 7245,
      "##86": 7246,
      "9.9": 7247,
      "##ford": 7248,
      "stockholdersâ": 7249,
      "##view": 7250,
      "morris": 7251,
      "coca-cola": 7252,
      "lengthy": 7253,
      "##tr": 7254,
      "chips": 7255,
      "##o)": 7256,
      "characterize": 7257,
      "window": 7258,
      "negotiating": 7259,
      "asset,": 7260,
      "(\"s": 7261,
      "impairment,": 7262,
      "(income)": 7263,
      "minerals": 7264,
      "##ene": 7265,
      "(ad": 7266,
      "doubled": 7267,
      "(k": 7268,
      "platforms,": 7269,
      "triple": 7270,
      "##old": 7271,
      "wi": 7272,
      "1,6": 7273,
      "forces": 7274,
      "message": 7275,
      "biogen": 7276,
      "d&a": 7277,
      "request..": 7278,
      "7%,": 7279,
      "ai": 7280,
      "conviction": 7281,
      "##71": 7282,
      "swiss": 7283,
      "ef": 7284,
      "definitions,": 7285,
      "bit,": 7286,
      "2012.": 7287,
      "pat": 7288,
      "henry": 7289,
      "opportunistic": 7290,
      "imposes": 7291,
      "mineral": 7292,
      "department,": 7293,
      "below:": 7294,
      "aspect": 7295,
      "##yo": 7296,
      "##41": 7297,
      "underwriters": 7298,
      "##98": 7299,
      "##2-": 7300,
      "accruing": 7301,
      "legally": 7302,
      "0.25": 7303,
      "disadvantage": 7304,
      "##-9": 7305,
      "##nm": 7306,
      "1,2": 7307,
      "##r-": 7308,
      "dna": 7309,
      "##side": 7310,
      "formerly": 7311,
      "dac": 7312,
      "adopting": 7313,
      "cv": 7314,
      "viable": 7315,
      "needham": 7316,
      "cities": 7317,
      "container": 7318,
      "##van": 7319,
      "outlet": 7320,
      "sample": 7321,
      "thailand": 7322,
      "scheme": 7323,
      "##xa": 7324,
      "undertakes": 7325,
      "##nk": 7326,
      "reward": 7327,
      "1%,": 7328,
      "##89": 7329,
      "reimburse": 7330,
      "##4)": 7331,
      "##51": 7332,
      "##pt": 7333,
      "placing": 7334,
      "paint": 7335,
      "13.5": 7336,
      "frankly": 7337,
      "protected": 7338,
      "titled": 7339,
      "payable,": 7340,
      "americas/united": 7341,
      "feedback,": 7342,
      "simulation": 7343,
      "cam": 7344,
      "200,000": 7345,
      "shifted": 7346,
      "synergy": 7347,
      "pushed": 7348,
      "corp,": 7349,
      "notwithstanding": 7350,
      "season,": 7351,
      "##ium": 7352,
      "unresolved": 7353,
      "ye": 7354,
      "anyone": 7355,
      "directive": 7356,
      "lae": 7357,
      "occ": 7358,
      "amounts,": 7359,
      "takeover": 7360,
      "s.a.,": 7361,
      "originate": 7362,
      "september,": 7363,
      "icd": 7364,
      "publicity": 7365,
      "21e": 7366,
      "two-thirds": 7367,
      "discussing": 7368,
      "ng": 7369,
      "##sco": 7370,
      "large-cap": 7371,
      "waiver": 7372,
      "certainty": 7373,
      "good,": 7374,
      "kinds": 7375,
      "##em": 7376,
      "09": 7377,
      "multi-family": 7378,
      "##n-": 7379,
      "rooms": 7380,
      "##94": 7381,
      "colorado": 7382,
      "realignment": 7383,
      "225": 7384,
      "supreme": 7385,
      "eligibility": 7386,
      "(other": 7387,
      "##@": 7388,
      "over-": 7389,
      "on-": 7390,
      "83.": 7391,
      "##ect": 7392,
      "films": 7393,
      "practicable": 7394,
      "##ina": 7395,
      "##board": 7396,
      "dod": 7397,
      "high-speed": 7398,
      "warranted": 7399,
      "could,": 7400,
      "(versus": 7401,
      "pr": 7402,
      "(j": 7403,
      "harris": 7404,
      "creditors": 7405,
      "##ged": 7406,
      "indian": 7407,
      "##43": 7408,
      "clear,": 7409,
      "##s/": 7410,
      "wild": 7411,
      "corresponds": 7412,
      "comm": 7413,
      "repricing": 7414,
      "feeling": 7415,
      "alleging": 7416,
      "micron": 7417,
      "dennis": 7418,
      "(proprietary)": 7419,
      "administration,": 7420,
      "approach,": 7421,
      "230": 7422,
      "high,": 7423,
      "files": 7424,
      "medicine": 7425,
      "compensation:": 7426,
      "cor": 7427,
      "attractive,": 7428,
      "securitized": 7429,
      "receptor": 7430,
      "##-out": 7431,
      "stifel": 7432,
      "##mic": 7433,
      "greatly": 7434,
      "december,": 7435,
      "developments,": 7436,
      "l.p.": 7437,
      "ensuring": 7438,
      "construct": 7439,
      "ceded": 7440,
      "self-": 7441,
      "##-re": 7442,
      "far,": 7443,
      "millions)": 7444,
      "progression": 7445,
      "##ome": 7446,
      "exiting": 7447,
      "recourse": 7448,
      "##ale": 7449,
      "dual": 7450,
      "marcellus": 7451,
      "map": 7452,
      "projections,": 7453,
      "reductions,": 7454,
      "though,": 7455,
      "##jo": 7456,
      "cds": 7457,
      "tariffs": 7458,
      "next-generation": 7459,
      "registrant": 7460,
      "inc.;": 7461,
      "commit": 7462,
      "3.0%": 7463,
      "opportunity,": 7464,
      "infringing": 7465,
      "##77": 7466,
      "truly": 7467,
      "10.3": 7468,
      "parks": 7469,
      "delivers": 7470,
      "75.": 7471,
      "modeled": 7472,
      "ot": 7473,
      "fs": 7474,
      "geographical": 7475,
      "##-7": 7476,
      "260": 7477,
      "pte": 7478,
      "achievements": 7479,
      "adjusts": 7480,
      "##mn": 7481,
      "outperform,": 7482,
      "(e)": 7483,
      "re-": 7484,
      "2.0%": 7485,
      "mer": 7486,
      "motors": 7487,
      "#": 7488,
      "comments,": 7489,
      "##ru": 7490,
      "##wer": 7491,
      "nicely": 7492,
      "pressures,": 7493,
      "parallel": 7494,
      "marketplace,": 7495,
      "lock": 7496,
      "j.p.morgan": 7497,
      "corning": 7498,
      "##vision": 7499,
      "promising": 7500,
      "84.": 7501,
      "lynch": 7502,
      "availability,": 7503,
      "100.0": 7504,
      "sometime": 7505,
      "indiana": 7506,
      "vegas": 7507,
      "year-on-year": 7508,
      "franchised": 7509,
      "4.0%": 7510,
      "slowly": 7511,
      "ya": 7512,
      "##r's": 7513,
      "march,": 7514,
      "##76": 7515,
      "scores": 7516,
      "10.1": 7517,
      "controller": 7518,
      "(l": 7519,
      "significance": 7520,
      "1,8": 7521,
      "performance-based": 7522,
      "ltd;": 7523,
      "80.": 7524,
      "streaming": 7525,
      "packages": 7526,
      "##ral": 7527,
      "roche": 7528,
      "fat": 7529,
      "##sk": 7530,
      "copied": 7531,
      "##lic": 7532,
      "promotion)": 7533,
      "swing": 7534,
      "chicken": 7535,
      "1.25": 7536,
      "policyholders": 7537,
      "trending": 7538,
      "designs,": 7539,
      "rural": 7540,
      "sba": 7541,
      "##ang": 7542,
      "asserted": 7543,
      "sees": 7544,
      "para": 7545,
      "math": 7546,
      "responsibilities": 7547,
      "significantly,": 7548,
      "##light": 7549,
      "summarize": 7550,
      "operationsâ": 7551,
      "industrial,": 7552,
      "quarter-over-quarter": 7553,
      "night": 7554,
      "5.0%": 7555,
      "##p)": 7556,
      "row": 7557,
      "security(ies)": 7558,
      "##zation": 7559,
      "commercializing": 7560,
      "college": 7561,
      "##x-": 7562,
      "risk/reward": 7563,
      "inhibit": 7564,
      "action,": 7565,
      "idaho": 7566,
      "lifestyle": 7567,
      "fruit": 7568,
      "responses": 7569,
      "##63": 7570,
      "realty": 7571,
      "10.7": 7572,
      "indefinite": 7573,
      "retire": 7574,
      "**": 7575,
      "sudden": 7576,
      "##53": 7577,
      "repatriation": 7578,
      "##c's": 7579,
      "sur": 7580,
      "dsl": 7581,
      "reasonable,": 7582,
      "checking": 7583,
      "bac": 7584,
      "in-": 7585,
      "learn": 7586,
      "innovations": 7587,
      "trajectory": 7588,
      "greenhouse": 7589,
      "pushing": 7590,
      "deteriorate": 7591,
      "##o-": 7592,
      "relying": 7593,
      "inform": 7594,
      "emphasize": 7595,
      "sean": 7596,
      "carl": 7597,
      "transparency": 7598,
      "pediatric": 7599,
      "123": 7600,
      "sky": 7601,
      "equates": 7602,
      "nominal": 7603,
      "validity": 7604,
      "remedies": 7605,
      "gateway": 7606,
      "onshore": 7607,
      "resellers": 7608,
      "wine": 7609,
      "linear": 7610,
      "on-going": 7611,
      "sovereign": 7612,
      "instability": 7613,
      "mercury": 7614,
      "attribute": 7615,
      "sub-": 7616,
      "##ative": 7617,
      "11.0": 7618,
      "fiduciary": 7619,
      "##fer": 7620,
      "dm": 7621,
      "downs": 7622,
      "troubled": 7623,
      "infusion": 7624,
      "return,": 7625,
      "tc": 7626,
      "sil": 7627,
      "##if": 7628,
      "##ham": 7629,
      "##vir": 7630,
      "##mc": 7631,
      "concentrations": 7632,
      "##wide": 7633,
      "food,": 7634,
      "drugs,": 7635,
      "pop": 7636,
      "dvd": 7637,
      "consumables": 7638,
      "gla": 7639,
      "wouldnâ": 7640,
      "stemming": 7641,
      "citizens": 7642,
      "##rm": 7643,
      "##84": 7644,
      "##68": 7645,
      "\"re": 7646,
      "medi": 7647,
      "palm": 7648,
      "hired": 7649,
      "exp": 7650,
      "playing": 7651,
      "specifications": 7652,
      "plants,": 7653,
      "##car": 7654,
      "journal": 7655,
      "andy": 7656,
      "updating": 7657,
      "routine": 7658,
      "permian": 7659,
      "portable": 7660,
      "whole,": 7661,
      "##can": 7662,
      "##level": 7663,
      "anywhere": 7664,
      "intensive": 7665,
      "insights": 7666,
      "media,": 7667,
      "index,": 7668,
      "##ick": 7669,
      "timothy": 7670,
      "##/c": 7671,
      "accordingly": 7672,
      "sw": 7673,
      "##ime": 7674,
      "expert": 7675,
      "concessions": 7676,
      "emergence": 7677,
      "8.5%": 7678,
      "0.09": 7679,
      "du": 7680,
      "runs": 7681,
      "(japan)": 7682,
      "variances": 7683,
      "higher,": 7684,
      "biopharmaceutical": 7685,
      "organically": 7686,
      "financially": 7687,
      "##tc": 7688,
      "containers": 7689,
      "##rin": 7690,
      "(pa": 7691,
      "wider": 7692,
      "pose": 7693,
      "08": 7694,
      "##72": 7695,
      "hughes": 7696,
      "exposure,": 7697,
      "duties": 7698,
      "##3.": 7699,
      "rebate": 7700,
      "disasters": 7701,
      "by:": 7702,
      "sdn": 7703,
      "lung": 7704,
      "##in,": 7705,
      "francisco": 7706,
      "2,000": 7707,
      "disaster": 7708,
      "10.6": 7709,
      "bur": 7710,
      "bylaws": 7711,
      "dividing": 7712,
      "command": 7713,
      "england": 7714,
      "optimal": 7715,
      "##vis": 7716,
      "##ond": 7717,
      "funding,": 7718,
      "2-": 7719,
      "##og": 7720,
      "270": 7721,
      "##-i": 7722,
      "attractiveness": 7723,
      "operating,": 7724,
      "##rie": 7725,
      "mitigated": 7726,
      "em": 7727,
      "steadily": 7728,
      "renal": 7729,
      "bryan": 7730,
      "attack": 7731,
      "s,": 7732,
      "##tri": 7733,
      "possible,": 7734,
      "##-6": 7735,
      "dis": 7736,
      "210": 7737,
      "arizona": 7738,
      "sustainability": 7739,
      "inline": 7740,
      "recruitment": 7741,
      "320": 7742,
      "employs": 7743,
      "admissions": 7744,
      "10.8": 7745,
      "10.4": 7746,
      "edwards": 7747,
      "##:0": 7748,
      "opinions,": 7749,
      "86.": 7750,
      "broaden": 7751,
      "bs": 7752,
      "##ped": 7753,
      "notebook": 7754,
      "pioneer": 7755,
      "##-de": 7756,
      "chi": 7757,
      "0.30": 7758,
      "shell": 7759,
      "##rk": 7760,
      "women's": 7761,
      "87.": 7762,
      "103": 7763,
      "restoration": 7764,
      "ws": 7765,
      "##head": 7766,
      "##oe": 7767,
      "schwab": 7768,
      "salt": 7769,
      "hospitals,": 7770,
      "##sy": 7771,
      "mastercard": 7772,
      "jo": 7773,
      "asps": 7774,
      "sb": 7775,
      "doses": 7776,
      "withdraw": 7777,
      "blend": 7778,
      "sandler": 7779,
      "builds": 7780,
      "##cf": 7781,
      "##ky": 7782,
      "comprising": 7783,
      "composed": 7784,
      "hawaii": 7785,
      "ventures,": 7786,
      "customers’": 7787,
      "sep": 7788,
      "predicted": 7789,
      "phases": 7790,
      "kansas": 7791,
      "ah": 7792,
      "join": 7793,
      "108": 7794,
      "avg": 7795,
      "posting": 7796,
      "bath": 7797,
      "107": 7798,
      "1.0%": 7799,
      "much,": 7800,
      "stack": 7801,
      "closings": 7802,
      "mitigation": 7803,
      "incurrence": 7804,
      "blocks": 7805,
      "unclear": 7806,
      "##ations": 7807,
      "ho": 7808,
      "##gn": 7809,
      "anticipate,": 7810,
      "communicate": 7811,
      "salomon": 7812,
      "sources:": 7813,
      "allergan": 7814,
      "powered": 7815,
      "apart": 7816,
      "wedbush": 7817,
      "bra": 7818,
      "ig": 7819,
      "mkt": 7820,
      "delay,": 7821,
      "policyholder": 7822,
      "vo": 7823,
      "powder": 7824,
      "sizable": 7825,
      "semi": 7826,
      "##oli": 7827,
      "ia": 7828,
      "frankly,": 7829,
      "alexander": 7830,
      "280": 7831,
      "protections": 7832,
      "timeline": 7833,
      "york)": 7834,
      "##dis": 7835,
      "text": 7836,
      "20%,": 7837,
      "mal": 7838,
      "indefinite-lived": 7839,
      "ytd": 7840,
      "unpredictable": 7841,
      "##8-": 7842,
      "##n's": 7843,
      "sufficiently": 7844,
      "##month": 7845,
      "skills": 7846,
      "11.2": 7847,
      "successor": 7848,
      "\\u": 7849,
      "gi": 7850,
      "dp": 7851,
      "caps": 7852,
      "sti": 7853,
      "equal-weight": 7854,
      "reality": 7855,
      "notified": 7856,
      "partner,": 7857,
      "finra,": 7858,
      "hat": 7859,
      "grow,": 7860,
      "mu": 7861,
      "##49": 7862,
      "ceiling": 7863,
      "cent": 7864,
      "burden": 7865,
      "92.": 7866,
      "(ce": 7867,
      "suffered": 7868,
      "sbc": 7869,
      "alabama": 7870,
      "research)": 7871,
      "au": 7872,
      "zone": 7873,
      "##,0": 7874,
      "biotech": 7875,
      "santa": 7876,
      "fd": 7877,
      "guggenheim": 7878,
      "195": 7879,
      "acquired,": 7880,
      "parameters": 7881,
      "llc's": 7882,
      "95.": 7883,
      "li": 7884,
      "briefly": 7885,
      "z": 7886,
      "john,": 7887,
      "##pri": 7888,
      "##iv": 7889,
      "defendants": 7890,
      "##&": 7891,
      "vehicles,": 7892,
      "molecule": 7893,
      "##ram": 7894,
      "buffer": 7895,
      "accessed": 7896,
      "company.": 7897,
      "(if": 7898,
      "concentrate": 7899,
      "(thailand)": 7900,
      "##ech": 7901,
      "module": 7902,
      "qwest": 7903,
      "02": 7904,
      "##an,": 7905,
      "bcf": 7906,
      "rewards": 7907,
      "creditworthiness": 7908,
      "factset": 7909,
      "inc.'s": 7910,
      "lan": 7911,
      "?stock": 7912,
      "complex,": 7913,
      "enroll": 7914,
      "tranche": 7915,
      "##,1": 7916,
      "om": 7917,
      "repurchases,": 7918,
      "govern": 7919,
      "2:": 7920,
      "av": 7921,
      "y-o-y": 7922,
      "##78": 7923,
      "##95": 7924,
      "geographically": 7925,
      "50,000": 7926,
      "cleaning": 7927,
      "follow-on": 7928,
      "correction": 7929,
      "sanford": 7930,
      "cancellations": 7931,
      "timber": 7932,
      "constantly": 7933,
      "northwest": 7934,
      "##cor": 7935,
      "foundry": 7936,
      "##56": 7937,
      "shut": 7938,
      "taxed": 7939,
      "ban": 7940,
      "rentals": 7941,
      "##61": 7942,
      "##nn": 7943,
      "attached": 7944,
      "##29": 7945,
      "99.": 7946,
      "##rp": 7947,
      "compliance,": 7948,
      "reinvest": 7949,
      "electronics,": 7950,
      "nickel": 7951,
      "approaching": 7952,
      "##ara": 7953,
      "collateral,": 7954,
      "application,": 7955,
      "##lar": 7956,
      "abl": 7957,
      "april,": 7958,
      "ow": 7959,
      "labor,": 7960,
      "completed,": 7961,
      "##ator": 7962,
      "single-family": 7963,
      "regulations;": 7964,
      "##ions": 7965,
      "cer": 7966,
      "one-third": 7967,
      "##t-": 7968,
      "phones": 7969,
      "payment,": 7970,
      "(pro": 7971,
      "102": 7972,
      "laid": 7973,
      "kick": 7974,
      "rendered": 7975,
      "wil": 7976,
      "##,â": 7977,
      "grain": 7978,
      "disposable": 7979,
      "buy:": 7980,
      "##bt": 7981,
      "jude": 7982,
      "africa,": 7983,
      "closures": 7984,
      "deteriorating": 7985,
      "##ub": 7986,
      "pressure,": 7987,
      "widespread": 7988,
      "timeframe": 7989,
      "rationalization": 7990,
      "tightening": 7991,
      "discourage": 7992,
      "##vs": 7993,
      "benefit,": 7994,
      "picked": 7995,
      "barry": 7996,
      "mellon": 7997,
      "fluctuated": 7998,
      "wonder": 7999,
      "##ini": 8000,
      "philosophy": 8001,
      "ministry": 8002,
      "toxic": 8003,
      "##ob": 8004,
      "mb": 8005,
      "july,": 8006,
      "disease,": 8007,
      "za": 8008,
      "inflationary": 8009,
      "##art": 8010,
      "meant": 8011,
      "(3": 8012,
      "ze": 8013,
      "route": 8014,
      "endo": 8015,
      "##59": 8016,
      "##my": 8017,
      "lc": 8018,
      "downturns": 8019,
      "##79": 8020,
      "tariff": 8021,
      "restaurants,": 8022,
      "exelon": 8023,
      "intermodal": 8024,
      "dip": 8025,
      "survival": 8026,
      "88.": 8027,
      "##fc": 8028,
      "fixed-": 8029,
      "89.": 8030,
      "##time": 8031,
      "lafferty": 8032,
      "preventing": 8033,
      "##e-": 8034,
      "korea:": 8035,
      "##stone": 8036,
      "le": 8037,
      "seed": 8038,
      "consumers,": 8039,
      "plasma": 8040,
      "frozen": 8041,
      "##ace": 8042,
      "##ali": 8043,
      "fc": 8044,
      "93.": 8045,
      "yet,": 8046,
      "maxim": 8047,
      "nyse,": 8048,
      "test,": 8049,
      "site,": 8050,
      "valve": 8051,
      "lte": 8052,
      "uk,": 8053,
      "arbitration": 8054,
      "15%,": 8055,
      "balance,": 8056,
      "force,": 8057,
      "automotive,": 8058,
      "##ade": 8059,
      "expansions": 8060,
      "groups,": 8061,
      "##f,": 8062,
      "ann": 8063,
      "(0.": 8064,
      "##58": 8065,
      "verification": 8066,
      "tree": 8067,
      "##pan": 8068,
      "catch": 8069,
      "thermo": 8070,
      "argentina": 8071,
      "sd": 8072,
      "(an": 8073,
      "continue,": 8074,
      "##44": 8075,
      "indices": 8076,
      "realizing": 8077,
      "frac": 8078,
      "oe": 8079,
      "##87": 8080,
      "##ion,": 8081,
      "##sâ": 8082,
      "##pd": 8083,
      "d.c.": 8084,
      "su": 8085,
      "ft": 8086,
      "holt": 8087,
      "4.": 8088,
      "intrinsic": 8089,
      "bt": 8090,
      "(1.": 8091,
      "close,": 8092,
      "11.3": 8093,
      "bids": 8094,
      "bonuses": 8095,
      "sponsors": 8096,
      "inquiries": 8097,
      "az": 8098,
      "render": 8099,
      "pre-": 8100,
      "permanently": 8101,
      "wa": 8102,
      "examinations": 8103,
      "anadarko": 8104,
      "restatement": 8105,
      "nitrogen": 8106,
      "softer": 8107,
      "stick": 8108,
      "australia:": 8109,
      "dividend,": 8110,
      "currencies,": 8111,
      "reversed": 8112,
      "wells,": 8113,
      "timeliness": 8114,
      "(co": 8115,
      "assignment": 8116,
      "license,": 8117,
      "•a": 8118,
      "netflix": 8119,
      "(re": 8120,
      "under-": 8121,
      "2h0": 8122,
      "multiple,": 8123,
      "brothers": 8124,
      "gradual": 8125,
      "day-to-day": 8126,
      "(after": 8127,
      "difficult,": 8128,
      "non-controlling": 8129,
      "neuro": 8130,
      "matching": 8131,
      "##uc": 8132,
      "##ville,": 8133,
      "signing": 8134,
      "cost-": 8135,
      "##-p": 8136,
      "dupont": 8137,
      "##ari": 8138,
      "tap": 8139,
      "look,": 8140,
      "##driven": 8141,
      "53.": 8142,
      "evident": 8143,
      "spoke": 8144,
      "har": 8145,
      "severely": 8146,
      "kenneth": 8147,
      "containment": 8148,
      "ds": 8149,
      "cast": 8150,
      "respiratory": 8151,
      "nesbitt": 8152,
      "##-specific": 8153,
      "efficiency,": 8154,
      "(formerly": 8155,
      "translated": 8156,
      "reading": 8157,
      "##l)": 8158,
      "(g": 8159,
      "merge": 8160,
      "backup": 8161,
      "54%": 8162,
      "##ii": 8163,
      "##pr": 8164,
      "91.": 8165,
      "messaging": 8166,
      "##pre": 8167,
      "wet": 8168,
      "##/200": 8169,
      "##wi": 8170,
      "two-": 8171,
      "refunds": 8172,
      "1992": 8173,
      "##97": 8174,
      "repositioning": 8175,
      "pi": 8176,
      "hurricanes": 8177,
      "displayed": 8178,
      "##r.": 8179,
      "s&p's": 8180,
      "(6": 8181,
      "p/e,": 8182,
      "trs": 8183,
      "novartis": 8184,
      "publication,": 8185,
      "yield,": 8186,
      "federated": 8187,
      "mcgraw-hill": 8188,
      "consultant": 8189,
      "##ple": 8190,
      "anchor": 8191,
      "##,6": 8192,
      "fragmented": 8193,
      "mono": 8194,
      "fitness": 8195,
      "14.5": 8196,
      "11.7": 8197,
      "signals": 8198,
      "nicolaus": 8199,
      "pledge": 8200,
      "##ock": 8201,
      "pb": 8202,
      "articles": 8203,
      "ger": 8204,
      "##ings": 8205,
      "delaying": 8206,
      "ke": 8207,
      "##93": 8208,
      "viacom": 8209,
      "publications": 8210,
      "usual": 8211,
      "1933,": 8212,
      "tried": 8213,
      "philippines": 8214,
      "order,": 8215,
      "58%": 8216,
      "inclusive": 8217,
      "computers": 8218,
      "(far": 8219,
      "predictability": 8220,
      "##ame": 8221,
      "##-8": 8222,
      "exemptions": 8223,
      "ser": 8224,
      "##bc": 8225,
      "94.": 8226,
      "requirements;": 8227,
      "venture,": 8228,
      "dar": 8229,
      "##hy": 8230,
      "wrong": 8231,
      "10.9": 8232,
      "sm": 8233,
      "mbia": 8234,
      "##/m": 8235,
      "(w": 8236,
      "carries": 8237,
      "enters": 8238,
      "##,5": 8239,
      "country,": 8240,
      "##ole": 8241,
      "3-year": 8242,
      "deceleration": 8243,
      "(f": 8244,
      "ing": 8245,
      "team's": 8246,
      "11.1": 8247,
      "accessing": 8248,
      "##gra": 8249,
      "methodologies,": 8250,
      "##qui": 8251,
      "implant": 8252,
      "mild": 8253,
      "rmbs": 8254,
      "300,000": 8255,
      "thereafter": 8256,
      "nat": 8257,
      "on-site": 8258,
      "soup": 8259,
      "schools": 8260,
      "nb": 8261,
      "denoted": 8262,
      "single-": 8263,
      "access,": 8264,
      "##74": 8265,
      "propane": 8266,
      "burn": 8267,
      "##fit": 8268,
      "##83": 8269,
      "ur": 8270,
      "sluggish": 8271,
      "renovation": 8272,
      "prescriptions": 8273,
      "penn": 8274,
      "benchmarks": 8275,
      "says": 8276,
      "reinvested": 8277,
      "wafers": 8278,
      "time-consuming": 8279,
      "sta": 8280,
      "lincoln": 8281,
      "differential": 8282,
      "sara": 8283,
      "office,": 8284,
      "hospitality": 8285,
      "presentations": 8286,
      "conversions": 8287,
      "reiterating": 8288,
      "##g)": 8289,
      "aol": 8290,
      "##57": 8291,
      "undervalued": 8292,
      "##tu": 8293,
      "uncollectible": 8294,
      "9%,": 8295,
      "##'s,": 8296,
      "marginal": 8297,
      "tie": 8298,
      "peripheral": 8299,
      "oklahoma": 8300,
      "displays": 8301,
      "fred": 8302,
      "receive,": 8303,
      "regulating": 8304,
      "typically,": 8305,
      "closing,": 8306,
      "85.": 8307,
      "(6)": 8308,
      "registrations": 8309,
      "months)": 8310,
      "##uring": 8311,
      "samsung": 8312,
      "11.6": 8313,
      "railroad": 8314,
      "october,": 8315,
      "demonstrating": 8316,
      "snow": 8317,
      "internet,": 8318,
      "##cast": 8319,
      "captive": 8320,
      "inpatient": 8321,
      "desirable": 8322,
      "c&i": 8323,
      "##sl": 8324,
      "constrained": 8325,
      "2.3%": 8326,
      "wasn't": 8327,
      "violate": 8328,
      "licensee": 8329,
      "56%": 8330,
      "##li": 8331,
      "##6)": 8332,
      "yr": 8333,
      "##ye": 8334,
      "est.": 8335,
      "constructive": 8336,
      "##zer": 8337,
      "studio": 8338,
      "27a": 8339,
      "um": 8340,
      "1st": 8341,
      "east)": 8342,
      "smooth": 8343,
      "judgments,": 8344,
      "##1)": 8345,
      "comparison,": 8346,
      "cfa,": 8347,
      "bernstein": 8348,
      "##top": 8349,
      "ex-": 8350,
      "shortly": 8351,
      "nutrition": 8352,
      "assessment,": 8353,
      "tablets": 8354,
      "models,": 8355,
      "ro": 8356,
      "##-off": 8357,
      "density": 8358,
      "bla": 8359,
      "psc": 8360,
      "island": 8361,
      "##pay": 8362,
      "(hong": 8363,
      "french": 8364,
      "paypal": 8365,
      "ei": 8366,
      "decent": 8367,
      "fastest": 8368,
      "ambac": 8369,
      "##mber": 8370,
      "shortage": 8371,
      "ent": 8372,
      "travelers": 8373,
      "practical": 8374,
      "beliefs": 8375,
      "year-to-year": 8376,
      "off,": 8377,
      "##oad": 8378,
      "adr": 8379,
      "symantec": 8380,
      "eliminations": 8381,
      "pl": 8382,
      "foreclosed": 8383,
      "lucent": 8384,
      "##,7": 8385,
      "transform": 8386,
      "alternatively,": 8387,
      "strict": 8388,
      "##,8": 8389,
      "##min": 8390,
      "risk)": 8391,
      "nov": 8392,
      "ian": 8393,
      "packaging,": 8394,
      "adc": 8395,
      "aim": 8396,
      "derivatives,": 8397,
      "57%": 8398,
      "store,": 8399,
      "findings": 8400,
      "##c.": 8401,
      "identity": 8402,
      "subprime": 8403,
      "111": 8404,
      "innovation,": 8405,
      "pci": 8406,
      "allegations": 8407,
      "deficiency": 8408,
      "binding": 8409,
      "“a": 8410,
      "non-re": 8411,
      "nationally": 8412,
      "ty": 8413,
      "toys": 8414,
      "##dt": 8415,
      "albeit": 8416,
      "trustee": 8417,
      "rehabilitation": 8418,
      "sin": 8419,
      "##:1": 8420,
      "ghg": 8421,
      "tr": 8422,
      "bankers": 8423,
      "11.4": 8424,
      "making,": 8425,
      "hartford": 8426,
      "franklin": 8427,
      "discovered": 8428,
      "medicines": 8429,
      "history,": 8430,
      "payers": 8431,
      "feasibility": 8432,
      "fpl": 8433,
      "adams": 8434,
      "1000": 8435,
      "pri": 8436,
      "nv": 8437,
      "wrap": 8438,
      "low,": 8439,
      "direct,": 8440,
      "downtime": 8441,
      "cement": 8442,
      "tokyo": 8443,
      "prepay": 8444,
      "##t)": 8445,
      "reconciliations": 8446,
      "mel": 8447,
      "proportionate": 8448,
      "divest": 8449,
      "##ura": 8450,
      "refresh": 8451,
      "alcoa": 8452,
      "investigational": 8453,
      "shareholdersâ": 8454,
      "industry's": 8455,
      "109": 8456,
      "gilead": 8457,
      "obligation,": 8458,
      "##47": 8459,
      "premiums,": 8460,
      "aided": 8461,
      "extends": 8462,
      "##ila": 8463,
      "##ori": 8464,
      "cit": 8465,
      "immuno": 8466,
      "##cing": 8467,
      "hardware,": 8468,
      "tel": 8469,
      "client\"": 8470,
      "##/o": 8471,
      "year..": 8472,
      "dividends)": 8473,
      "settlement,": 8474,
      "liquidate": 8475,
      "expensing": 8476,
      "basis)": 8477,
      "##sp": 8478,
      "mit": 8479,
      "monetize": 8480,
      "louis": 8481,
      "in-store": 8482,
      "cigarette": 8483,
      "0.11": 8484,
      "##erg": 8485,
      "##&a": 8486,
      "hal": 8487,
      "outsource": 8488,
      "unaffiliated": 8489,
      "ua": 8490,
      "sell:": 8491,
      "(expense),": 8492,
      "##ski": 8493,
      "0.50": 8494,
      "mattel": 8495,
      "due,": 8496,
      "agents,": 8497,
      "cautioned": 8498,
      "exports": 8499,
      "minute": 8500,
      "##,2": 8501,
      "alaska": 8502,
      "weightings": 8503,
      "saas": 8504,
      "petition": 8505,
      "sim": 8506,
      "baird": 8507,
      "dilute": 8508,
      "imperial": 8509,
      "ngls": 8510,
      "japan:": 8511,
      "discontinuation": 8512,
      "esp": 8513,
      "(based": 8514,
      "##ank": 8515,
      "##fied": 8516,
      "(m)": 8517,
      "##ood": 8518,
      "fy09": 8519,
      "campbell": 8520,
      "thinkequity": 8521,
      "retrospective": 8522,
      "pass-through": 8523,
      "benchmark*": 8524,
      "glenn": 8525,
      "##xis": 8526,
      "fundamentally": 8527,
      "antitrust": 8528,
      "98.": 8529,
      "continental": 8530,
      "specialist": 8531,
      "undeveloped": 8532,
      "members,": 8533,
      "you'd": 8534,
      "##len": 8535,
      "courts": 8536,
      "ari": 8537,
      "environmental,": 8538,
      "excessive": 8539,
      "bodies": 8540,
      "enactment": 8541,
      "challenges,": 8542,
      "##met": 8543,
      "cfo,": 8544,
      "##act": 8545,
      "navy": 8546,
      "mr": 8547,
      "donald": 8548,
      "##ich": 8549,
      "sands": 8550,
      "ch": 8551,
      "##don": 8552,
      "kept": 8553,
      "tougher": 8554,
      "recall,": 8555,
      "\"e": 8556,
      "fund,": 8557,
      "uninsured": 8558,
      "style": 8559,
      "revs": 8560,
      "(c": 8561,
      "baby": 8562,
      "penetrate": 8563,
      "##,”": 8564,
      "197": 8565,
      "##ria": 8566,
      "##/s": 8567,
      "lease,": 8568,
      "##sen": 8569,
      "portfolio:": 8570,
      "tu": 8571,
      "measure,": 8572,
      "delays,": 8573,
      "dec": 8574,
      "metrics,": 8575,
      "##dm": 8576,
      "tam": 8577,
      "experts": 8578,
      "thrift": 8579,
      "(7": 8580,
      "nova": 8581,
      "##hs": 8582,
      "year;": 8583,
      "123r": 8584,
      "eventual": 8585,
      "campus": 8586,
      "wei": 8587,
      "demonstrates": 8588,
      "##-t": 8589,
      "##ill": 8590,
      "topline": 8591,
      "differs": 8592,
      "tail": 8593,
      "queries": 8594,
      "flattish": 8595,
      "reclassification": 8596,
      "productivity,": 8597,
      "training,": 8598,
      "##ita": 8599,
      "96.": 8600,
      "flat,": 8601,
      "##ste": 8602,
      "redemptions": 8603,
      "\"ac\"": 8604,
      "gallon": 8605,
      "expenses;": 8606,
      "top-": 8607,
      "sizes": 8608,
      "##ack": 8609,
      "determinations": 8610,
      "impaired,": 8611,
      "teens": 8612,
      "accomplished": 8613,
      "tele": 8614,
      "casa": 8615,
      "##,3": 8616,
      "kong)": 8617,
      "modern": 8618,
      "3,000": 8619,
      "(i": 8620,
      "bank’s": 8621,
      "non-recourse": 8622,
      "attempting": 8623,
      "responding": 8624,
      "pen": 8625,
      "ka": 8626,
      "entirety": 8627,
      "carriers,": 8628,
      "rare": 8629,
      "co2": 8630,
      "##bb": 8631,
      "perfect": 8632,
      "dri": 8633,
      "beverages": 8634,
      "wants": 8635,
      "90.": 8636,
      "collecting": 8637,
      "subcontractors": 8638,
      "(12": 8639,
      "12.2": 8640,
      "11.8": 8641,
      "genetic": 8642,
      "better,": 8643,
      "guarantor": 8644,
      "underperforming": 8645,
      "horizons": 8646,
      "##cia": 8647,
      "tour": 8648,
      "universe:": 8649,
      "defensive": 8650,
      "##5-": 8651,
      "resin": 8652,
      "##mark": 8653,
      "(mm)": 8654,
      "lcd": 8655,
      "incidence": 8656,
      "shares;": 8657,
      "wastewater": 8658,
      "13.0": 8659,
      "dd&a": 8660,
      "sce": 8661,
      "incident": 8662,
      "consumer,": 8663,
      "official": 8664,
      "mcf": 8665,
      "leg": 8666,
      "russian": 8667,
      "jewelry": 8668,
      "##a's": 8669,
      "(buy)": 8670,
      "curtail": 8671,
      "##&e": 8672,
      "1.6%": 8673,
      "teva": 8674,
      "##gin": 8675,
      "cross-": 8676,
      "importantly": 8677,
      "np": 8678,
      "harmed": 8679,
      "poly": 8680,
      "2,0": 8681,
      "diminish": 8682,
      "bundled": 8683,
      "ifrs": 8684,
      "assured": 8685,
      "scale,": 8686,
      "arises": 8687,
      "costco": 8688,
      "sooner": 8689,
      "competitors;": 8690,
      "presenting": 8691,
      "beef": 8692,
      "2.4%": 8693,
      "potential,": 8694,
      "exited": 8695,
      "persist": 8696,
      "infection": 8697,
      "tank": 8698,
      "shutdown": 8699,
      "101": 8700,
      "annually,": 8701,
      "comed": 8702,
      "ordering": 8703,
      "##sive": 8704,
      "weighting": 8705,
      "gsk": 8706,
      "concrete": 8707,
      "decommissioning": 8708,
      "underwritten": 8709,
      "(not": 8710,
      "##uri": 8711,
      "##lp": 8712,
      "##,4": 8713,
      "occupied": 8714,
      "improper": 8715,
      "credits,": 8716,
      "temperature": 8717,
      "massive": 8718,
      "pakistan:": 8719,
      "brent": 8720,
      "outage": 8721,
      "price:": 8722,
      "company:": 8723,
      "##work": 8724,
      "##cin": 8725,
      "poised": 8726,
      "6-12": 8727,
      "deploying": 8728,
      "reit,": 8729,
      "promissory": 8730,
      "hypothetical": 8731,
      "contents;": 8732,
      "##cho": 8733,
      "inconsistencies": 8734,
      "##mb": 8735,
      "transit": 8736,
      "dairy": 8737,
      "tre": 8738,
      "spine": 8739,
      "144": 8740,
      "someone": 8741,
      "0.40": 8742,
      "##fin": 8743,
      "plastics": 8744,
      "ratings:": 8745,
      "hyperlink": 8746,
      "multiplying": 8747,
      "compliant": 8748,
      "##iva": 8749,
      "conditional": 8750,
      "band": 8751,
      "terry": 8752,
      "sar": 8753,
      "patented": 8754,
      "paper,": 8755,
      "col": 8756,
      "validation": 8757,
      "constructed": 8758,
      "##xi": 8759,
      "##air": 8760,
      "mc": 8761,
      "chevron": 8762,
      "y/y,": 8763,
      "taiwan:": 8764,
      "fifo": 8765,
      "powers": 8766,
      "monetization": 8767,
      "##lis": 8768,
      "##tions": 8769,
      "##f)": 8770,
      "occurs,": 8771,
      "accepting": 8772,
      "##cent": 8773,
      "6.0%": 8774,
[...]
